{
  "\u0000": 10,
  "\u0001": 11,
  "\u0002": 12,
  "\u0003": 13,
  "\u0004": 14,
  "\u0005": 15,
  "\u0006": 16,
  "\u0007": 17,
  "\b": 18,
  "\t": 19,
  "\n": 20,
  "\u000b": 21,
  "\f": 22,
  "\r": 23,
  "\u000e": 24,
  "\u000f": 25,
  "\u0010": 26,
  "\u0011": 27,
  "\u0012": 28,
  "\u0013": 29,
  "\u0014": 30,
  "\u0015": 31,
  "\u0016": 32,
  "\u0017": 33,
  "\u0018": 34,
  "\u0019": 35,
  "\u001a": 36,
  "\u001b": 37,
  "\u001c": 38,
  "\u001d": 39,
  "\u001e": 40,
  "\u001f": 41,
  " ": 42,
  " a": 270,
  " a ": 299,
  " a big": 1805,
  " a big ": 2002,
  " a s": 568,
  " a small ": 1915,
  " a sp": 2033,
  " about ": 829,
  " about the ": 1498,
  " ad": 919,
  " advent": 1070,
  " adventure": 1254,
  " after": 2003,
  " again": 783,
  " al": 774,
  " all": 855,
  " all ": 991,
  " all the ": 1420,
  " always ": 1100,
  " amaz": 1330,
  " an": 559,
  " an ": 1212,
  " and ": 284,
  " and Ben": 1389,
  " and Ben ": 1388,
  " and Ben are ": 2032,
  " and a ": 1497,
  " and s": 1941,
  " and said, \"": 1160,
  " and the ": 740,
  " angr": 1526,
  " animal": 1831,
  " any": 1221,
  " ar": 394,
  " are ": 461,
  " arm": 1873,
  " around": 1781,
  " around ": 804,
  " around the ": 1316,
  " as ": 1047,
  " ask": 872,
  " at ": 998,
  " at the ": 997,
  " awa": 1527,
  " away": 889,
  " away ": 1246,
  " c": 442,
  " can": 1140,
  " can ": 824,
  " h": 321,
  " her": 680,
  " her ": 453,
  " him": 730,
  " him ": 1829,
  " his ": 474,
  " ho": 1914,
  " home": 1830,
  " how ": 1780,
  " hug": 1338,
  " s": 292,
  " sa": 389,
  " said": 595,
  " said ": 798,
  " said, \"": 1020,
  " said. \"": 1329,
  " saw": 1441,
  " says": 674,
  " says. \"": 1189,
  " se": 1011,
  " sh": 765,
  " she ": 563,
  " should ": 1827,
  " smil": 693,
  " smiled and ": 1592,
  " smiled and said, \"": 1731,
  " so ": 981,
  " some": 869,
  " some ": 1112,
  " something": 1779,
  " something ": 1307,
  " sp": 939,
  " special ": 1483,
  " st": 779,
  " star": 1568,
  " str": 1828,
  " the ": 297,
  " to ": 744,
  " was ": 835,
  "!": 43,
  "! ": 424,
  "! He ": 1346,
  "! She ": 1406,
  "! The ": 1139,
  "!\"": 1315,
  "!\" ": 451,
  "!\" Ben": 1645,
  "!\" Lily ": 1387,
  "!\" The ": 1356,
  "!\u00c3\u00a2\u00e2\u0082\u00ac ": 1669,
  "\"": 44,
  "\" ": 320,
  "#": 45,
  "$": 46,
  "%": 47,
  "&": 48,
  "'": 49,
  "'re ": 1567,
  "'s ": 392,
  "'t ": 439,
  "(": 50,
  ")": 51,
  "*": 52,
  "+": 53,
  ",": 54,
  ", ": 282,
  ", \"": 380,
  ", a ": 828,
  ", and ": 505,
  ", and the ": 1730,
  ", but ": 538,
  ", but he ": 1591,
  ", but she ": 1668,
  ", he ": 1286,
  ", she ": 786,
  ", so ": 1182,
  ", the ": 721,
  ", they ": 1297,
  ", \u00c3\u00a2\u00e2\u0082\u00ac\u00c5\u0093": 1181,
  ",\"": 1111,
  ",\" ": 592,
  ",\" Ben": 1464,
  ",\" said ": 2001,
  "-": 55,
  ".": 56,
  ". ": 269,
  ". \"": 368,
  ". \"H": 1278,
  ". \"W": 846,
  ". A": 480,
  ". A ": 1872,
  ". After": 1565,
  ". After a ": 1940,
  ". An": 1452,
  ". And ": 888,
  ". As ": 1337,
  ". B": 471,
  ". Ben ": 1939,
  ". But ": 560,
  ". But the ": 1355,
  ". But then": 1525,
  ". C": 1706,
  ". Do you ": 1778,
  ". E": 660,
  ". Every": 1234,
  ". Every ": 1138,
  ". Everyone ": 1510,
  ". F": 761,
  ". From ": 974,
  ". From that day ": 1419,
  ". From that day on, ": 1913,
  ". From then ": 1644,
  ". G": 1566,
  ". H": 310,
  ". He ": 318,
  ". He had ": 2031,
  ". He is ": 1850,
  ". He said ": 2030,
  ". He said, \"": 1912,
  ". He wanted to ": 1614,
  ". He was ": 831,
  ". Her ": 965,
  ". His ": 1159,
  ". I": 366,
  ". I ": 743,
  ". I'": 1825,
  ". In": 1496,
  ". It ": 419,
  ". It is ": 1165,
  ". It was ": 769,
  ". It was a ": 1306,
  ". J": 1149,
  ". John": 1590,
  ". L": 1405,
  ". Lily ": 715,
  ". M": 587,
  ". Maybe ": 2000,
  ". Mom": 1482,
  ". N": 1245,
  ". On": 454,
  ". One ": 2029,
  ". One da": 475,
  ". One day ": 1451,
  ". One day, ": 512,
  ". One day, she ": 1626,
  ". One day, the ": 1705,
  ". One day, they ": 1404,
  ". P": 1826,
  ". S": 304,
  ". Sara": 1481,
  ". She ": 316,
  ". She had ": 1964,
  ". She said ": 1777,
  ". She said, \"": 1667,
  ". She wanted to ": 1625,
  ". She was ": 921,
  ". So ": 1345,
  ". So, ": 1564,
  ". Sudden": 840,
  ". Suddenly, ": 1026,
  ". T": 288,
  ". Th": 738,
  ". The": 319,
  ". The ": 352,
  ". The little girl ": 1624,
  ". Then": 1259,
  ". Then ": 1480,
  ". There ": 1776,
  ". They ": 324,
  ". They a": 1180,
  ". They are ": 932,
  ". They had ": 1563,
  ". They were ": 924,
  ". Tim": 760,
  ". Tim ": 1729,
  ". Timmy ": 1040,
  ". To": 1871,
  ". Tom": 1365,
  ". Tom ": 1524,
  ". W": 546,
  ". We ": 910,
  ". Wh": 734,
  ". When ": 1039,
  ". When she ": 2028,
  ". You": 616,
  ". You ": 1110,
  ". You are ": 1202,
  ". You can ": 1911,
  ".\" ": 414,
  ".\" \"": 1562,
  ".\" Lily ": 1354,
  ".\" The ": 1046,
  ".\" They ": 1268,
  ".\u00c3\u00a2\u00e2\u0082\u00ac ": 1685,
  "/": 57,
  "0": 58,
  "1": 59,
  "2": 60,
  "3": 61,
  "4": 62,
  "5": 63,
  "6": 64,
  "7": 65,
  "8": 66,
  "9": 67,
  ":": 68,
  ": ": 1353,
  ": \"": 1575,
  ";": 69,
  "<": 70,
  "<assistant>": 7,
  "<bos>": 1,
  "<eos>": 2,
  "<mask>": 4,
  "<pad>": 0,
  "<system>": 5,
  "<think>": 9,
  "<tool>": 8,
  "<unk>": 3,
  "<user>": 6,
  "=": 71,
  ">": 72,
  "?": 73,
  "? ": 1125,
  "?\"": 1479,
  "?\" ": 533,
  "?\" The ": 1244,
  "@": 74,
  "A": 75,
  "An": 676,
  "Anna": 809,
  "Anna ": 1589,
  "B": 76,
  "Ben": 504,
  "Ben ": 728,
  "Ben and ": 1849,
  "Bob": 1328,
  "But ": 1277,
  "C": 77,
  "Can ": 980,
  "Can we ": 1728,
  "D": 78,
  "Da": 815,
  "Dais": 1379,
  "Daisy ": 1999,
  "Do ": 1227,
  "Do you ": 1258,
  "Don't ": 1440,
  "Don't wor": 1963,
  "E": 79,
  "F": 80,
  "G": 81,
  "H": 82,
  "He ": 1056,
  "Her ": 1704,
  "I": 83,
  "I ": 531,
  "I a": 1848,
  "I don't ": 1666,
  "I'": 946,
  "I'm ": 1775,
  "I'm s": 1804,
  "It ": 1124,
  "It's ": 1523,
  "J": 84,
  "Ja": 651,
  "Jack": 917,
  "Jack ": 1109,
  "Jack and ": 1938,
  "Jan": 1574,
  "Jim": 1643,
  "Jo": 697,
  "Joe ": 1998,
  "John": 913,
  "K": 85,
  "L": 86,
  "Let": 793,
  "Let's ": 886,
  "Lil": 357,
  "Lila": 1243,
  "Lily": 617,
  "Lily ": 443,
  "Lily and ": 752,
  "Lily and Ben ": 1463,
  "Lily's ": 1148,
  "Lily, ": 1774,
  "Lily. She ": 1439,
  "Look": 1285,
  "Look, ": 1684,
  "Luc": 1019,
  "Lucy ": 1239,
  "M": 87,
  "Max": 1069,
  "Max ": 2025,
  "Maybe ": 1703,
  "Mia": 1010,
  "Mia ": 1683,
  "Moll": 1870,
  "Mom": 643,
  "Mom ": 2027,
  "Mommy ": 1997,
  "Mum": 2026,
  "N": 88,
  "No, ": 1092,
  "O": 89,
  "OK": 1824,
  "On": 361,
  "Once ": 462,
  "Once there was a ": 1418,
  "Once upon a tim": 490,
  "Once upon a time ": 884,
  "Once upon a time there was a ": 1025,
  "Once upon a time, ": 562,
  "Once upon a time, there ": 1803,
  "Once upon a time, there was a ": 603,
  "Once upon a time, there was a little boy named ": 1823,
  "Once upon a time, there was a little girl named ": 1284,
  "Once upon a time, there was a little girl named Lily. She ": 1758,
  "One da": 1773,
  "P": 90,
  "Q": 91,
  "R": 92,
  "S": 93,
  "Sam": 776,
  "Sam ": 1588,
  "Sara": 754,
  "Sara ": 1996,
  "She ": 956,
  "So ": 1802,
  "T": 94,
  "Thank ": 1327,
  "Thank you, ": 1681,
  "That ": 1682,
  "That's ": 1847,
  "The": 797,
  "The ": 527,
  "They ": 923,
  "This ": 1727,
  "Tim": 552,
  "Timmy": 1130,
  "Timmy ": 964,
  "Tom": 576,
  "Tom ": 1091,
  "Tom and ": 1386,
  "U": 95,
  "V": 96,
  "W": 97,
  "We ": 1772,
  "Wh": 1910,
  "X": 98,
  "Y": 99,
  "Yes, ": 1090,
  "You": 501,
  "You ": 1587,
  "You are ": 1462,
  "Z": 100,
  "[": 101,
  "\\": 102,
  "]": 103,
  "^": 104,
  "_": 105,
  "`": 106,
  "a": 107,
  "a ": 333,
  "a big ": 1613,
  "a s": 1238,
  "able ": 1869,
  "ac": 1822,
  "ad": 1757,
  "ag": 1726,
  "again": 1756,
  "air": 1868,
  "al": 516,
  "al ": 1081,
  "all": 986,
  "all ": 1867,
  "ally ": 1108,
  "ally, ": 1755,
  "also ": 2024,
  "always ": 1237,
  "am": 351,
  "ame ": 630,
  "an": 298,
  "an ": 372,
  "an idea": 1962,
  "an to ": 1137,
  "and": 692,
  "and ": 312,
  "ange ": 1612,
  "animal": 1495,
  "ant ": 1403,
  "any": 1702,
  "ar": 287,
  "ar ": 1725,
  "ara": 628,
  "ara ": 1494,
  "ard": 649,
  "ard ": 1846,
  "are ": 787,
  "arn": 724,
  "around ": 916,
  "ary ": 1961,
  "ask": 671,
  "asked ": 1547,
  "asked her ": 1611,
  "at": 415,
  "at ": 334,
  "at the ": 1522,
  "ate ": 1623,
  "ati": 1610,
  "ax": 902,
  "ay": 772,
  "ay, ": 1937,
  "aybe ": 1220,
  "b": 108,
  "b ": 1821,
  "ba": 383,
  "baby ": 1936,
  "back": 650,
  "back ": 670,
  "back and ": 1771,
  "back to ": 1172,
  "back to the ": 1622,
  "bad": 1800,
  "bad ": 1724,
  "bag": 2023,
  "ball": 771,
  "ball ": 1680,
  "balloon": 1586,
  "bar": 1546,
  "bb": 683,
  "be": 340,
  "be ": 455,
  "be careful": 1799,
  "bea": 813,
  "bear": 854,
  "bear ": 1450,
  "beauti": 963,
  "beautiful": 1995,
  "beautiful ": 1211,
  "beca": 1008,
  "became ": 1402,
  "because ": 1038,
  "bed": 1344,
  "been ": 1700,
  "befor": 1080,
  "before ": 1866,
  "beg": 1267,
  "began to ": 1430,
  "beh": 1477,
  "behind ": 1573,
  "ber": 1009,
  "best ": 990,
  "better": 1147,
  "big": 410,
  "big ": 529,
  "big and ": 1665,
  "big, ": 1314,
  "bigg": 1753,
  "bir": 607,
  "bird": 1031,
  "bird ": 868,
  "bit ": 1417,
  "bl": 792,
  "bla": 1801,
  "blan": 1752,
  "ble": 819,
  "ble ": 896,
  "blo": 1076,
  "block": 1295,
  "blue ": 1664,
  "bo": 381,
  "boat": 1545,
  "boat ": 1621,
  "book": 937,
  "bor": 1416,
  "both ": 1210,
  "bout ": 717,
  "bow": 1478,
  "box": 778,
  "box ": 1679,
  "boy ": 589,
  "br": 691,
  "bra": 943,
  "bran": 1701,
  "brave ": 1521,
  "brea": 1296,
  "break": 1935,
  "bri": 1364,
  "bro": 1336,
  "brok": 1335,
  "brother": 1678,
  "brough": 1994,
  "bu": 845,
  "buck": 1754,
  "bug": 1024,
  "buil": 1798,
  "but": 1116,
  "but ": 450,
  "butter": 1415,
  "by": 1045,
  "by ": 938,
  "c": 109,
  "ca": 497,
  "called ": 1219,
  "came ": 714,
  "can": 1136,
  "can ": 737,
  "car": 397,
  "car ": 1429,
  "care": 719,
  "carefu": 1509,
  "careful": 1164,
  "careful ": 1642,
  "carefully ": 1992,
  "cat": 955,
  "cat ": 1561,
  "ce": 682,
  "ce ": 376,
  "ces": 1663,
  "ch": 338,
  "ch ": 491,
  "cha": 1188,
  "che": 777,
  "cheer": 1960,
  "chil": 1135,
  "childr": 1476,
  "ci": 1401,
  "ck": 322,
  "ck ": 470,
  "cl": 862,
  "cla": 1378,
  "cle": 952,
  "clean": 1751,
  "climb": 1226,
  "clo": 720,
  "clos": 1036,
  "closer ": 1909,
  "co": 511,
  "col": 1154,
  "color": 1313,
  "com": 791,
  "come": 1934,
  "come ": 1037,
  "con": 1179,
  "continu": 1797,
  "cook": 1641,
  "cool": 1959,
  "cor": 1993,
  "cou": 690,
  "could": 808,
  "could ": 588,
  "couldn't ": 901,
  "coun": 1958,
  "cover": 1865,
  "cr": 1933,
  "cra": 1018,
  "cre": 803,
  "cream": 1275,
  "cri": 1385,
  "cry": 1276,
  "ct": 1253,
  "cu": 927,
  "curi": 1257,
  "curiou": 1750,
  "d": 110,
  "d ": 267,
  "d and ": 757,
  "da": 339,
  "dad": 1232,
  "dad ": 967,
  "dan": 1158,
  "danc": 2022,
  "dar": 1312,
  "dark": 1662,
  "day": 807,
  "day ": 704,
  "day, ": 875,
  "dd": 506,
  "ddy ": 1661,
  "de": 712,
  "de ": 575,
  "dec": 634,
  "decid": 644,
  "decided to ": 709,
  "deli": 1294,
  "delici": 1957,
  "der": 661,
  "di": 895,
  "did": 733,
  "did ": 599,
  "did not ": 669,
  "didn't ": 818,
  "diff": 1233,
  "differ": 1326,
  "different ": 1520,
  "dinn": 1908,
  "dirt": 1991,
  "dis": 1609,
  "do": 426,
  "do ": 763,
  "does ": 1334,
  "does not ": 1493,
  "dog": 686,
  "dog ": 1171,
  "doll": 1001,
  "doll ": 1932,
  "don't ": 912,
  "door": 1325,
  "down": 689,
  "down ": 1677,
  "down and ": 1990,
  "dr": 1017,
  "dra": 1274,
  "dre": 930,
  "dream": 1585,
  "dress": 1907,
  "dri": 1414,
  "dro": 1475,
  "dy ": 812,
  "e": 111,
  "e ": 266,
  "e and ": 430,
  "e and the ": 1906,
  "e da": 440,
  "e the ": 707,
  "e to ": 1377,
  "e was ": 1343,
  "e, ": 401,
  "e, but ": 1400,
  "e. He ": 1075,
  "e. She ": 1023,
  "e. The ": 1163,
  "e. They ": 1089,
  "ea": 449,
  "each ": 770,
  "each other": 941,
  "ead": 1584,
  "ear": 629,
  "eat": 1492,
  "eat ": 1187,
  "ec": 445,
  "ecia": 849,
  "ecial": 1231,
  "ecial ": 874,
  "ed": 362,
  "ed ": 277,
  "ed a": 736,
  "ed a ": 979,
  "ed and ": 402,
  "ed and said, \"": 871,
  "ed her": 1795,
  "ed her ": 609,
  "ed him": 1749,
  "ed his ": 867,
  "ed it": 1989,
  "ed it ": 1060,
  "ed that ": 839,
  "ed the ": 444,
  "ed their ": 1560,
  "ed to ": 325,
  "ed to the ": 1770,
  "ed with ": 1608,
  "ed, ": 1028,
  "ed, \"": 1068,
  "ed. \"": 1134,
  "ed. He ": 1178,
  "ed. She ": 996,
  "ed. The ": 1399,
  "ed. They ": 1283,
  "el": 492,
  "el ": 1122,
  "ell": 823,
  "ello, ": 1794,
  "ely ": 1931,
  "em": 1007,
  "en": 286,
  "en ": 364,
  "en and ": 1438,
  "en she ": 858,
  "en the ": 1413,
  "end": 408,
  "end ": 850,
  "end.": 1905,
  "enjoy": 1461,
  "enough": 1988,
  "ent": 483,
  "ent ": 457,
  "ep": 509,
  "ep ": 1027,
  "er": 274,
  "er ": 301,
  "er and ": 832,
  "ere ": 336,
  "es": 371,
  "es ": 427,
  "es and ": 753,
  "es to ": 1723,
  "es, ": 838,
  "est": 1157,
  "est ": 1305,
  "et": 465,
  "et ": 951,
  "et and ": 1273,
  "ev": 915,
  "even ": 1162,
  "ever": 1115,
  "ever ": 1796,
  "every": 785,
  "every ": 1121,
  "every day": 1748,
  "everyone ": 1252,
  "ex": 466,
  "exc": 586,
  "excit": 594,
  "excited to ": 1955,
  "explor": 881,
  "explore the ": 2021,
  "ey": 962,
  "eyes": 1845,
  "ez": 1956,
  "f": 112,
  "f ": 1660,
  "fa": 510,
  "face": 1769,
  "fair": 1903,
  "fam": 1044,
  "famil": 1114,
  "family ": 1676,
  "far": 1266,
  "fast": 985,
  "fav": 1375,
  "favor": 1518,
  "favorite ": 1620,
  "fe": 391,
  "feel": 742,
  "feel ": 1265,
  "feeling ": 1397,
  "fel": 548,
  "felt ": 573,
  "felt so ": 1930,
  "ff": 1508,
  "fi": 520,
  "fight": 1904,
  "fill": 1491,
  "fin": 1035,
  "finally ": 1902,
  "find ": 762,
  "fini": 2020,
  "fir": 1099,
  "first": 1722,
  "fish": 945,
  "fix": 1490,
  "fla": 1398,
  "fle": 1055,
  "flew": 1768,
  "flew ": 1675,
  "flo": 1376,
  "floor": 1820,
  "flow": 894,
  "flower": 1043,
  "fly": 1324,
  "fly ": 1412,
  "fo": 1987,
  "foll": 1230,
  "follow": 1293,
  "foo": 1153,
  "for": 360,
  "for ": 549,
  "for a ": 853,
  "for her ": 1844,
  "for his ": 1793,
  "for the ": 1054,
  "for you": 1929,
  "forest": 1699,
  "found ": 641,
  "found a ": 1133,
  "found the ": 2019,
  "fr": 526,
  "fre": 1519,
  "fri": 412,
  "friend": 436,
  "friend ": 1005,
  "friends": 626,
  "friends ": 782,
  "friends. They ": 1449,
  "fro": 1659,
  "from": 739,
  "from ": 1030,
  "from the ": 989,
  "fru": 1792,
  "fter": 1006,
  "fter ": 1363,
  "fu": 434,
  "ful": 688,
  "ful ": 622,
  "full ": 1864,
  "fun": 514,
  "fun ": 1107,
  "g": 113,
  "g ": 1098,
  "ga": 485,
  "gain": 612,
  "gam": 1396,
  "gard": 866,
  "garden": 1016,
  "gave ": 817,
  "gave him": 1986,
  "ge": 420,
  "ge ": 885,
  "gent": 1901,
  "ger": 1323,
  "get ": 796,
  "gett": 1843,
  "gh": 388,
  "ght": 883,
  "ght ": 1146,
  "gi": 775,
  "gir": 456,
  "girl": 848,
  "girl ": 507,
  "give ": 1097,
  "gla": 1218,
  "glad ": 1362,
  "go": 404,
  "go ": 535,
  "go to the ": 1842,
  "going ": 1698,
  "goo": 620,
  "good": 1029,
  "good ": 810,
  "goodby": 1282,
  "got ": 766,
  "gr": 547,
  "gra": 722,
  "grabb": 1374,
  "grand": 1559,
  "grass": 2018,
  "gre": 685,
  "great ": 1361,
  "green ": 1697,
  "ground": 1225,
  "ground ": 1819,
  "gu": 1256,
  "h": 114,
  "h ": 1352,
  "ha": 291,
  "had ": 373,
  "had a ": 656,
  "hair": 1818,
  "han": 746,
  "hand": 961,
  "hank ": 1119,
  "happ": 390,
  "happen": 1079,
  "happened": 2017,
  "happil": 1719,
  "happy": 625,
  "happy ": 608,
  "happy and ": 844,
  "happy to ": 1767,
  "happy.": 1674,
  "happy. She ": 2016,
  "har": 1088,
  "hard": 1928,
  "hard ": 1954,
  "has ": 1720,
  "has a ": 1746,
  "hat": 978,
  "hat ": 496,
  "hat is ": 1766,
  "hat's ": 1255,
  "have ": 463,
  "have a ": 1132,
  "have fun": 1543,
  "have to ": 1428,
  "he": 294,
  "he ": 281,
  "he could ": 1200,
  "he had ": 1106,
  "he wanted to ": 1985,
  "he was ": 909,
  "he would ": 1816,
  "hea": 966,
  "head": 1583,
  "hear": 648,
  "heard ": 852,
  "heard a ": 1322,
  "hed": 1411,
  "hel": 519,
  "held ": 1817,
  "help": 542,
  "help ": 908,
  "her": 579,
  "her ": 382,
  "her mom": 1105,
  "here ": 1640,
  "hi": 1721,
  "hid": 1747,
  "high": 1658,
  "him": 508,
  "him ": 900,
  "his ": 406,
  "hn": 911,
  "ho": 637,
  "hole": 2015,
  "hom": 1544,
  "home": 1120,
  "home ": 1791,
  "hop": 1474,
  "hor": 1639,
  "house": 1170,
  "how ": 1201,
  "hug": 659,
  "hugg": 882,
  "hugged ": 1217,
  "hur": 1059,
  "hurt": 2014,
  "hurt ": 1841,
  "i": 115,
  "ia": 624,
  "ia ": 1311,
  "ial": 1224,
  "ic": 446,
  "ice": 899,
  "ice ": 698,
  "ick": 567,
  "id": 307,
  "id ": 396,
  "idea": 1216,
  "ies": 1900,
  "if": 642,
  "if ": 1042,
  "iff": 1199,
  "ig": 349,
  "igh": 557,
  "ight": 790,
  "ight ": 1342,
  "ign": 1427,
  "il": 295,
  "ill": 615,
  "ill ": 598,
  "illy ": 1840,
  "im": 306,
  "imal": 1015,
  "imb": 1209,
  "imp": 1215,
  "import": 1607,
  "in": 279,
  "in ": 570,
  "in a ": 1022,
  "in her ": 1186,
  "in his ": 1373,
  "in the ": 398,
  "in the garden": 1863,
  "in the park": 1208,
  "ind": 773,
  "ind ": 880,
  "ine ": 1953,
  "ing": 293,
  "ing ": 327,
  "ing a ": 1272,
  "ing and ": 847,
  "ing in the ": 1426,
  "ing s": 1696,
  "ing the ": 907,
  "ing to ": 1074,
  "ink": 950,
  "ink ": 1321,
  "inn": 1489,
  "insid": 837,
  "inside": 1745,
  "into ": 1984,
  "into the ": 1053,
  "iny ": 1952,
  "ion": 1281,
  "ip": 1542,
  "ir": 315,
  "ir ": 1606,
  "irt": 1582,
  "is": 447,
  "is ": 311,
  "is a ": 1118,
  "is not ": 1351,
  "ise": 1087,
  "it": 302,
  "it ": 326,
  "it and ": 1058,
  "it to ": 1207,
  "it was": 1657,
  "it was ": 619,
  "it was time ": 1927,
  "it was too ": 1951,
  "it's ": 1292,
  "it, ": 1862,
  "it. He ": 1558,
  "it. She ": 1744,
  "it. The ": 1839,
  "ite ": 834,
  "its ": 949,
  "itt": 393,
  "ittle ": 403,
  "j": 116,
  "jo": 756,
  "joy": 1169,
  "ju": 1320,
  "jump": 995,
  "jumped ": 1718,
  "just ": 973,
  "k": 117,
  "k ": 499,
  "ke": 665,
  "ke ": 367,
  "keep": 1717,
  "keep ": 1695,
  "kep": 1052,
  "kept ": 1145,
  "kid": 1488,
  "kind": 1743,
  "kind ": 1319,
  "kit": 1360,
  "kitch": 1815,
  "kitt": 2013,
  "kn": 679,
  "knew": 1790,
  "knew ": 1014,
  "know": 1251,
  "know ": 1021,
  "know what ": 1656,
  "l": 118,
  "l ": 337,
  "la": 317,
  "lady ": 1605,
  "land": 2012,
  "laugh": 802,
  "laughed and ": 1694,
  "ld": 564,
  "ld ": 354,
  "le": 335,
  "le ": 347,
  "le and ": 1604,
  "lea": 663,
  "learn": 758,
  "learned that ": 1899,
  "led ": 1395,
  "less": 1447,
  "let ": 1765,
  "let's ": 1638,
  "li": 328,
  "lid": 1113,
  "light": 1507,
  "lik": 578,
  "like ": 502,
  "like a ": 1742,
  "like the ": 1506,
  "like to ": 1437,
  "liked ": 1898,
  "liked to ": 768,
  "liked to play ": 1814,
  "likes ": 1341,
  "list": 984,
  "listen": 1304,
  "listen ": 1789,
  "little ": 411,
  "little boy ": 954,
  "little boy named ": 1487,
  "little girl": 1096,
  "little girl ": 590,
  "little girl named ": 988,
  "lived ": 1206,
  "lk": 613,
  "lk ": 1448,
  "ll": 305,
  "ll ": 433,
  "ll the ": 1897,
  "lled ": 914,
  "lly ": 593,
  "lo": 314,
  "lon": 1950,
  "long": 735,
  "long ": 1198,
  "look": 422,
  "look ": 1394,
  "looked ": 530,
  "looked around ": 1619,
  "looked around and ": 2011,
  "looked at ": 983,
  "looked at the ": 1813,
  "looking ": 1517,
  "looks ": 1716,
  "lot ": 1384,
  "lot of ": 1581,
  "lots ": 1067,
  "lots of ": 1197,
  "loud ": 1177,
  "lov": 555,
  "love ": 1117,
  "loved ": 1013,
  "loved to ": 788,
  "loved to play ": 1516,
  "low": 647,
  "lu": 1557,
  "ly": 727,
  "ly ": 540,
  "ly and ": 1655,
  "ly, ": 843,
  "m": 119,
  "m ": 827,
  "m s": 1271,
  "ma": 358,
  "made ": 600,
  "made a ": 1393,
  "mag": 1144,
  "magic": 1250,
  "mak": 1129,
  "make ": 582,
  "mall": 1262,
  "mall ": 1104,
  "man": 605,
  "man ": 906,
  "many ": 861,
  "mar": 1066,
  "maz": 1242,
  "me": 537,
  "me ": 893,
  "mean": 1715,
  "mem": 1195,
  "mes": 1473,
  "mil": 429,
  "min": 1264,
  "mir": 1861,
  "mo": 654,
  "mom": 395,
  "mom ": 696,
  "mom and ": 1425,
  "mommy ": 1303,
  "mon": 1263,
  "mor": 571,
  "more": 1350,
  "more ": 822,
  "most ": 1896,
  "mou": 1196,
  "mouse ": 1741,
  "mu": 668,
  "much": 1359,
  "much ": 1004,
  "mum": 1229,
  "my": 638,
  "my ": 407,
  "my and ": 1310,
  "my, ": 1460,
  "n": 120,
  "n't ": 558,
  "na": 585,
  "na ": 1161,
  "nam": 536,
  "named ": 604,
  "naugh": 1983,
  "nd": 544,
  "nd ": 275,
  "ne": 375,
  "near": 1309,
  "need": 1459,
  "need to ": 1812,
  "never": 1541,
  "never ": 977,
  "never se": 2010,
  "new": 1012,
  "new ": 581,
  "nex": 1185,
  "next ": 1270,
  "nic": 1788,
  "nice": 1556,
  "nice ": 1214,
  "night": 1618,
  "ning": 1340,
  "no": 356,
  "no ": 1128,
  "nodd": 1050,
  "nois": 1895,
  "noise": 1194,
  "not": 806,
  "not ": 425,
  "notic": 1156,
  "noticed ": 1894,
  "now": 1051,
  "now ": 1693,
  "ny": 1555,
  "ny ": 940,
  "o": 121,
  "o ": 276,
  "o, ": 633,
  "ob": 1034,
  "of": 345,
  "of ": 467,
  "of a ": 1838,
  "of her ": 1893,
  "of the ": 583,
  "off": 892,
  "off ": 1982,
  "ok": 341,
  "oke ": 1892,
  "ol": 1176,
  "old": 1637,
  "old ": 687,
  "old and ": 1811,
  "old man": 1949,
  "oll": 898,
  "olly ": 1291,
  "om": 290,
  "om ": 484,
  "ome": 435,
  "ome ": 468,
  "on": 289,
  "on ": 534,
  "on a ": 460,
  "on her ": 1410,
  "on his ": 1383,
  "on the ": 518,
  "on the floor": 1981,
  "on the ground": 1948,
  "on't ": 706,
  "on, ": 942,
  "one": 789,
  "one ": 528,
  "one da": 1540,
  "ong": 532,
  "only ": 1636,
  "oo": 580,
  "ood": 1539,
  "ood ": 2047,
  "ook": 1049,
  "ool": 1673,
  "oon": 1086,
  "oon ": 1764,
  "op": 478,
  "open": 860,
  "opened the ": 1580,
  "or": 296,
  "or ": 1003,
  "orr": 662,
  "orry, ": 1436,
  "ort": 1333,
  "other": 729,
  "other ": 918,
  "ou": 283,
  "oud": 1249,
  "oud ": 702,
  "ough": 539,
  "ould ": 405,
  "oun": 1891,
  "ound": 675,
  "ound ": 448,
  "our": 826,
  "our ": 1175,
  "ous": 1078,
  "ous ": 1085,
  "ouse": 920,
  "ouse ": 1890,
  "out": 521,
  "out ": 494,
  "out of the ": 1472,
  "outsid": 745,
  "outside": 1635,
  "outside ": 1554,
  "outside and ": 2009,
  "over": 1168,
  "over ": 1318,
  "over the ": 1889,
  "ow": 329,
  "ow ": 498,
  "ow, ": 1152,
  "own": 554,
  "own ": 1740,
  "p": 122,
  "p ": 972,
  "pa": 574,
  "pain": 1223,
  "par": 513,
  "parent": 1617,
  "park": 695,
  "park ": 1248,
  "part": 1979,
  "pe": 632,
  "pen": 1290,
  "peop": 1048,
  "people ": 1184,
  "per": 891,
  "pi": 1349,
  "pic": 1127,
  "pick": 953,
  "picked ": 1603,
  "pict": 1280,
  "picture": 1602,
  "pil": 1980,
  "pl": 655,
  "pla": 355,
  "place": 1978,
  "place ": 1470,
  "plan": 1126,
  "play": 472,
  "play ": 477,
  "play with ": 814,
  "played ": 1077,
  "playing": 1888,
  "playing ": 708,
  "plea": 1458,
  "pli": 1471,
  "plor": 879,
  "po": 636,
  "poin": 1977,
  "pp": 343,
  "ppear": 1713,
  "pped ": 795,
  "pped and ": 1860,
  "pr": 646,
  "pre": 713,
  "pretend ": 1926,
  "prett": 1241,
  "pretty ": 2046,
  "prin": 1505,
  "pro": 1634,
  "proud ": 936,
  "proud of": 1616,
  "proud of ": 1810,
  "pu": 678,
  "pull": 1692,
  "pupp": 1409,
  "puppy ": 1976,
  "put": 1714,
  "put ": 652,
  "put it ": 1672,
  "put the ": 1601,
  "q": 123,
  "qu": 611,
  "qui": 1887,
  "quick": 1174,
  "quickly ": 1424,
  "r": 124,
  "r ": 596,
  "ra": 378,
  "rabb": 1240,
  "rabbit ": 1671,
  "rain": 1738,
  "ran": 606,
  "ran ": 703,
  "ran to ": 1579,
  "ran to the ": 1691,
  "re": 308,
  "re ": 1302,
  "rea": 500,
  "reach": 1382,
  "read": 1808,
  "read ": 1690,
  "ready ": 1538,
  "reali": 1408,
  "realiz": 1514,
  "really ": 1712,
  "red": 1809,
  "red ": 1033,
  "reli": 1737,
  "remem": 1228,
  "remember": 1457,
  "repli": 1515,
  "replied, \"": 2045,
  "ri": 332,
  "rid": 1739,
  "ro": 409,
  "rock": 1469,
  "rom ": 948,
  "rong": 887,
  "room": 755,
  "room ": 1886,
  "room and ": 1859,
  "ru": 1032,
  "run": 725,
  "running": 2008,
  "ry": 922,
  "ry ": 1392,
  "s": 125,
  "s ": 272,
  "s a ": 905,
  "s and ": 418,
  "s in the ": 1553,
  "s it ": 1689,
  "s the ": 836,
  "s to ": 1236,
  "s were ": 1348,
  "s, ": 816,
  "s, and ": 1615,
  "s.": 1787,
  "s. \"": 1456,
  "s. He ": 926,
  "s. One day, ": 2044,
  "s. She ": 960,
  "s. The ": 1504,
  "s. They ": 723,
  "sa": 303,
  "sad": 935,
  "sad ": 1536,
  "sad and ": 1468,
  "safe": 1858,
  "said": 400,
  "said ": 566,
  "said, \"": 459,
  "said, \u00c3\u00a2\u00e2\u0082\u00ac\u00c5\u0093": 1572,
  "said. \"": 1571,
  "sail": 1925,
  "saw": 493,
  "saw ": 833,
  "saw a ": 653,
  "saw a big ": 1455,
  "saw the ": 1193,
  "say": 1332,
  "say ": 1391,
  "says": 842,
  "says ": 1653,
  "says, \"": 1204,
  "scar": 673,
  "scared ": 2043,
  "scared and ": 1632,
  "se": 344,
  "se ": 572,
  "se, ": 1785,
  "sed": 1434,
  "see": 1710,
  "see ": 601,
  "see the ": 1486,
  "see what ": 1709,
  "sees ": 1763,
  "sel": 870,
  "self": 1002,
  "self ": 1975,
  "sh": 359,
  "sh ": 1192,
  "sha": 1537,
  "shar": 1103,
  "share ": 1600,
  "she": 2007,
  "she ": 370,
  "she could ": 1885,
  "she had ": 1552,
  "she was ": 1101,
  "shed ": 1102,
  "shin": 971,
  "sho": 2042,
  "should ": 1535,
  "shout": 1422,
  "show": 1064,
  "si": 1205,
  "sid": 543,
  "sing": 1423,
  "sk": 431,
  "sky": 1381,
  "sle": 1289,
  "sleep": 1578,
  "slid": 1301,
  "slow": 1711,
  "small": 1736,
  "sme": 1654,
  "smil": 561,
  "smiled ": 2041,
  "smiled and ": 1151,
  "smiled and said, \"": 1735,
  "so": 781,
  "so ": 374,
  "so he ": 1924,
  "some": 597,
  "some ": 677,
  "something": 1183,
  "something ": 897,
  "soon ": 1652,
  "sorr": 944,
  "sorry ": 1884,
  "sound": 1786,
  "sp": 551,
  "special": 1923,
  "special ": 1631,
  "squ": 1633,
  "ss": 705,
  "ss ": 1446,
  "ss and ": 1947,
  "st": 313,
  "st ": 623,
  "sta": 1000,
  "star": 577,
  "started ": 1445,
  "started to ": 751,
  "stay": 1922,
  "stay ": 1650,
  "ste": 1837,
  "stepped ": 1974,
  "ster": 1358,
  "stick": 1762,
  "still ": 1380,
  "sto": 1651,
  "stop": 1630,
  "stor": 994,
  "str": 2040,
  "stre": 1857,
  "strong": 1173,
  "su": 1513,
  "sun": 825,
  "sure ": 1435,
  "surpri": 1300,
  "sw": 1065,
  "swe": 1372,
  "swing": 1973,
  "t": 126,
  "t ": 271,
  "t a ": 1191,
  "t and ": 1063,
  "t the ": 591,
  "t to ": 556,
  "t's ": 694,
  "ta": 413,
  "table": 1648,
  "tail": 1599,
  "tak": 1347,
  "take ": 684,
  "take a ": 1551,
  "talk": 1836,
  "tast": 1534,
  "tch": 1972,
  "te": 658,
  "te ": 1761,
  "tea": 1155,
  "teach": 1421,
  "ted": 1512,
  "ted ": 780,
  "ted to ": 416,
  "tell": 1433,
  "tend ": 1921,
  "ter": 481,
  "ter ": 1084,
  "th": 268,
  "th ": 925,
  "th and ": 1882,
  "than": 681,
  "thank": 784,
  "thanked ": 1432,
  "thanked the ": 1570,
  "that": 1057,
  "that ": 377,
  "that day ": 1299,
  "that he ": 1502,
  "that it ": 1881,
  "that she ": 959,
  "that the ": 1407,
  "the": 309,
  "the ": 278,
  "the best ": 1533,
  "their": 452,
  "their ": 479,
  "them": 437,
  "them ": 640,
  "them and ": 1532,
  "then": 987,
  "then ": 851,
  "ther": 441,
  "ther ": 614,
  "there": 1760,
  "there ": 432,
  "there was a ": 487,
  "they ": 385,
  "they a": 1598,
  "they are ": 1577,
  "they could ": 1969,
  "they had ": 1467,
  "they were ": 976,
  "they would ": 2006,
  "thing": 503,
  "thing ": 584,
  "things": 1357,
  "things ": 890,
  "think": 1503,
  "this": 1970,
  "this ": 878,
  "though": 701,
  "thought ": 865,
  "thr": 1143,
  "thre": 1073,
  "three ": 1501,
  "three year": 1688,
  "three years ": 1880,
  "through": 1370,
  "through the ": 1531,
  "ti": 970,
  "tight": 1971,
  "tim": 399,
  "time": 1369,
  "time ": 904,
  "times ": 1734,
  "tin": 1339,
  "ting": 1883,
  "tinu": 1733,
  "tir": 1649,
  "to": 323,
  "to ": 285,
  "to a ": 1308,
  "to be ": 931,
  "to do": 1879,
  "to go ": 1298,
  "to his ": 1670,
  "to make ": 1530,
  "to play ": 1095,
  "to the ": 417,
  "toge": 610,
  "together": 711,
  "together ": 1331,
  "together and ": 1946,
  "told ": 821,
  "told her ": 2039,
  "too": 748,
  "too ": 750,
  "took": 700,
  "took ": 1247,
  "took the ": 1431,
  "top": 1647,
  "tou": 1371,
  "touch": 1835,
  "tow": 1368,
  "toy": 873,
  "toy ": 1083,
  "toys": 1131,
  "toys ": 1968,
  "toys and ": 1485,
  "tr": 545,
  "tra": 1235,
  "tre": 635,
  "tree": 1920,
  "tree ": 1549,
  "tri": 764,
  "tried to ": 1094,
  "truck": 1203,
  "truck ": 1945,
  "try": 1856,
  "try ": 1550,
  "ts ": 664,
  "ts to ": 1646,
  "tt": 627,
  "tter": 999,
  "tter ": 1454,
  "tur": 947,
  "turn": 1093,
  "tw": 857,
  "two ": 1072,
  "u": 127,
  "uc": 929,
  "uck": 710,
  "uck ": 1444,
  "udd": 726,
  "udden": 747,
  "ue": 1511,
  "ue ": 958,
  "ug": 469,
  "ugh": 639,
  "ught ": 1967,
  "um": 495,
  "ump": 859,
  "un": 348,
  "under": 1123,
  "underst": 1548,
  "unt": 856,
  "until": 877,
  "until ": 1142,
  "up": 365,
  "up ": 830,
  "up and ": 975,
  "up the ": 1222,
  "upon a ": 486,
  "upon a tim": 489,
  "ur": 423,
  "ure": 667,
  "ure ": 805,
  "urp": 903,
  "urpri": 982,
  "us": 458,
  "use ": 820,
  "ust ": 767,
  "ut": 550,
  "ut ": 353,
  "uti": 928,
  "v": 128,
  "ve": 749,
  "ve ": 363,
  "ved ": 759,
  "vent": 794,
  "ventu": 1919,
  "ver": 331,
  "ver ": 618,
  "very": 621,
  "very ": 379,
  "very much": 1966,
  "ves": 1466,
  "ves ": 1288,
  "vi": 1855,
  "ving": 1784,
  "ving ": 1167,
  "vis": 1759,
  "vo": 1082,
  "voice ": 1687,
  "w": 129,
  "w ": 438,
  "wa": 280,
  "wait": 1367,
  "walk": 666,
  "walked ": 1366,
  "walking ": 1833,
  "wall": 1834,
  "wan": 384,
  "want": 1853,
  "want to ": 657,
  "wanted ": 1732,
  "wanted to ": 482,
  "war": 799,
  "ward": 1529,
  "warm": 1629,
  "was": 369,
  "was ": 300,
  "was a": 2005,
  "was a ": 421,
  "was a s": 1443,
  "was always ": 1807,
  "was so ": 476,
  "was so excit": 933,
  "was so happy ": 1166,
  "was so happy and ": 1877,
  "was very ": 553,
  "wat": 672,
  "watch": 876,
  "water": 934,
  "water ": 1569,
  "waved ": 1708,
  "way": 541,
  "way ": 741,
  "ways ": 732,
  "we": 716,
  "we ": 631,
  "we can ": 1707,
  "wea": 1854,
  "wear": 1597,
  "wel": 1878,
  "went": 1918,
  "went ": 515,
  "went to ": 1317,
  "went to the ": 1150,
  "were ": 428,
  "were playing ": 1943,
  "wh": 386,
  "what ": 602,
  "when ": 800,
  "when he ": 1876,
  "when she ": 1279,
  "where ": 1062,
  "whi": 1916,
  "whil": 1261,
  "who ": 645,
  "why ": 1595,
  "wi": 330,
  "will ": 801,
  "wind": 1465,
  "wind ": 1686,
  "window": 2037,
  "wing": 1944,
  "wished ": 1576,
  "with": 342,
  "with ": 464,
  "with a ": 993,
  "with a s": 1832,
  "with her": 1594,
  "with her ": 811,
  "with his ": 841,
  "with the ": 731,
  "with their ": 1500,
  "won": 1041,
  "wonder": 1141,
  "wonderful ": 1852,
  "wood": 1917,
  "wor": 569,
  "word": 2036,
  "work": 992,
  "world": 2004,
  "world ": 1965,
  "worri": 2035,
  "would ": 565,
  "would be ": 1875,
  "wr": 2038,
  "wrong": 1596,
  "x": 130,
  "y": 131,
  "y ": 273,
  "y a": 517,
  "y again": 1942,
  "y and ": 387,
  "y are ": 699,
  "y ask": 1528,
  "y to ": 1260,
  "y was ": 1442,
  "y's ": 1628,
  "y, ": 350,
  "y, \"": 1806,
  "y, a ": 1453,
  "y, but ": 1627,
  "y. He ": 1190,
  "y. She ": 1061,
  "y. The ": 2034,
  "y. They ": 1287,
  "yard": 1783,
  "year": 1213,
  "yell": 1269,
  "yellow ": 1874,
  "yon": 1782,
  "you": 346,
  "you ": 473,
  "you are ": 1851,
  "you can ": 1593,
  "you, ": 1071,
  "your": 1484,
  "your ": 718,
  "ys": 488,
  "yum": 1390,
  "z": 132,
  "{": 133,
  "|": 134,
  "}": 135,
  "~": 136,
  "\u007f": 137,
  "\u0080": 138,
  "\u0081": 139,
  "\u0082": 140,
  "\u0083": 141,
  "\u0084": 142,
  "\u0085": 143,
  "\u0086": 144,
  "\u0087": 145,
  "\u0088": 146,
  "\u0089": 147,
  "\u008a": 148,
  "\u008b": 149,
  "\u008c": 150,
  "\u008d": 151,
  "\u008e": 152,
  "\u008f": 153,
  "\u0090": 154,
  "\u0091": 155,
  "\u0092": 156,
  "\u0093": 157,
  "\u0094": 158,
  "\u0095": 159,
  "\u0096": 160,
  "\u0097": 161,
  "\u0098": 162,
  "\u0099": 163,
  "\u009a": 164,
  "\u009b": 165,
  "\u009c": 166,
  "\u009d": 167,
  "\u009e": 168,
  "\u009f": 169,
  "\u00a0": 170,
  "\u00a1": 171,
  "\u00a2": 172,
  "\u00a3": 173,
  "\u00a4": 174,
  "\u00a5": 175,
  "\u00a6": 176,
  "\u00a7": 177,
  "\u00a8": 178,
  "\u00a9": 179,
  "\u00aa": 180,
  "\u00ab": 181,
  "\u00ac": 182,
  "\u00ad": 183,
  "\u00ae": 184,
  "\u00af": 185,
  "\u00b0": 186,
  "\u00b1": 187,
  "\u00b2": 188,
  "\u00b3": 189,
  "\u00b4": 190,
  "\u00b5": 191,
  "\u00b6": 192,
  "\u00b7": 193,
  "\u00b8": 194,
  "\u00b9": 195,
  "\u00ba": 196,
  "\u00bb": 197,
  "\u00bc": 198,
  "\u00bd": 199,
  "\u00be": 200,
  "\u00bf": 201,
  "\u00c0": 202,
  "\u00c1": 203,
  "\u00c2": 204,
  "\u00c3": 205,
  "\u00c3\u00a2": 524,
  "\u00c3\u00a2\u00e2\u0082\u00ac": 525,
  "\u00c3\u00a2\u00e2\u0082\u00ac ": 957,
  "\u00c3\u00a2\u00e2\u0082\u00acT": 968,
  "\u00c3\u00a2\u00e2\u0082\u00acTM": 969,
  "\u00c3\u00a2\u00e2\u0082\u00acTMs ": 1499,
  "\u00c3\u00a2\u00e2\u0082\u00ac\u00c5\u0093": 864,
  "\u00c4": 206,
  "\u00c5": 207,
  "\u00c5\u0093": 863,
  "\u00c6": 208,
  "\u00c7": 209,
  "\u00c8": 210,
  "\u00c9": 211,
  "\u00ca": 212,
  "\u00cb": 213,
  "\u00cc": 214,
  "\u00cd": 215,
  "\u00ce": 216,
  "\u00cf": 217,
  "\u00d0": 218,
  "\u00d1": 219,
  "\u00d2": 220,
  "\u00d3": 221,
  "\u00d4": 222,
  "\u00d5": 223,
  "\u00d6": 224,
  "\u00d7": 225,
  "\u00d8": 226,
  "\u00d9": 227,
  "\u00da": 228,
  "\u00db": 229,
  "\u00dc": 230,
  "\u00dd": 231,
  "\u00de": 232,
  "\u00df": 233,
  "\u00e0": 234,
  "\u00e1": 235,
  "\u00e2": 236,
  "\u00e2\u0082": 522,
  "\u00e2\u0082\u00ac": 523,
  "\u00e3": 237,
  "\u00e4": 238,
  "\u00e5": 239,
  "\u00e6": 240,
  "\u00e7": 241,
  "\u00e8": 242,
  "\u00e9": 243,
  "\u00ea": 244,
  "\u00eb": 245,
  "\u00ec": 246,
  "\u00ed": 247,
  "\u00ee": 248,
  "\u00ef": 249,
  "\u00f0": 250,
  "\u00f1": 251,
  "\u00f2": 252,
  "\u00f3": 253,
  "\u00f4": 254,
  "\u00f5": 255,
  "\u00f6": 256,
  "\u00f7": 257,
  "\u00f8": 258,
  "\u00f9": 259,
  "\u00fa": 260,
  "\u00fb": 261,
  "\u00fc": 262,
  "\u00fd": 263,
  "\u00fe": 264,
  "\u00ff": 265
}
