{
  "\u0000": 10,
  "\u0001": 11,
  "\u0002": 12,
  "\u0003": 13,
  "\u0004": 14,
  "\u0005": 15,
  "\u0006": 16,
  "\u0007": 17,
  "\b": 18,
  "\t": 19,
  "\n": 20,
  "\u000b": 21,
  "\f": 22,
  "\r": 23,
  "\u000e": 24,
  "\u000f": 25,
  "\u0010": 26,
  "\u0011": 27,
  "\u0012": 28,
  "\u0013": 29,
  "\u0014": 30,
  "\u0015": 31,
  "\u0016": 32,
  "\u0017": 33,
  "\u0018": 34,
  "\u0019": 35,
  "\u001a": 36,
  "\u001b": 37,
  "\u001c": 38,
  "\u001d": 39,
  "\u001e": 40,
  "\u001f": 41,
  " ": 42,
  " a": 270,
  " a ": 291,
  " a big ": 1542,
  " about ": 881,
  " about the ": 1651,
  " ad": 969,
  " admir": 3966,
  " advent": 1123,
  " adventure": 1336,
  " adventure ": 3908,
  " after": 2753,
  " after ": 2236,
  " again": 818,
  " again ": 3157,
  " again.": 2201,
  " agre": 2483,
  " al": 739,
  " all": 1401,
  " all ": 891,
  " all day": 3647,
  " all day long": 3764,
  " all the ": 1321,
  " alone": 3907,
  " along": 3325,
  " also ": 2340,
  " always ": 1089,
  " am": 3520,
  " am ": 1923,
  " amaz": 1281,
  " amazing ": 2536,
  " an": 526,
  " an ": 1119,
  " and ": 285,
  " and Ben": 2266,
  " and Ben ": 1442,
  " and Ben are ": 2814,
  " and a ": 1861,
  " and he ": 2133,
  " and her ": 3007,
  " and it ": 2815,
  " and said, \"": 1132,
  " and she ": 2971,
  " and the ": 896,
  " angr": 1438,
  " angry and ": 2784,
  " animal": 1587,
  " another ": 2642,
  " answer": 3324,
  " any": 1061,
  " any ": 3008,
  " anymor": 2508,
  " anymore": 2752,
  " anything": 3590,
  " anything ": 3156,
  " app": 2785,
  " appear": 3244,
  " ar": 417,
  " are ": 522,
  " are you ": 2339,
  " arm": 2056,
  " around": 1638,
  " around ": 736,
  " around and ": 2055,
  " around the ": 1179,
  " arri": 2254,
  " arrived ": 3474,
  " as ": 967,
  " as a ": 3765,
  " as he ": 2872,
  " as she ": 3763,
  " as the ": 4029,
  " ask": 803,
  " asked ": 2200,
  " asked her ": 3323,
  " asked the ": 3422,
  " asked. \"": 3965,
  " asks. \"": 3906,
  " at": 2677,
  " at ": 1054,
  " at the ": 1040,
  " awa": 1702,
  " away": 934,
  " away ": 1309,
  " away and ": 3421,
  " away from the ": 4028,
  " away, ": 2937,
  " h": 319,
  " hard ": 3964,
  " her": 917,
  " her ": 450,
  " her and ": 3243,
  " here": 3519,
  " high": 3047,
  " him": 770,
  " him ": 1510,
  " his ": 474,
  " ho": 1914,
  " hom": 1308,
  " hour": 3473,
  " house": 2783,
  " how ": 1479,
  " how to ": 2535,
  " hug": 1295,
  " hugged ": 3646,
  " hur": 3376,
  " old ": 2908,
  " the ": 299,
  " year": 2754,
  "!": 43,
  "! ": 407,
  "! A": 2559,
  "! But ": 3837,
  "! E": 2871,
  "! He ": 1159,
  "! I ": 1850,
  "! It ": 1942,
  "! Let's ": 3713,
  "! S": 2378,
  "! She ": 1412,
  "! The ": 1129,
  "! They ": 3762,
  "! W": 1556,
  "! We ": 4027,
  "! You ": 2617,
  "! You are ": 3905,
  "!\"": 1500,
  "!\" ": 438,
  "!\" \"": 3645,
  "!\" Anna ": 4026,
  "!\" Ben ": 1849,
  "!\" Lily ": 1642,
  "!\" S": 1825,
  "!\" She ": 3761,
  "!\" So ": 3518,
  "!\" The ": 1239,
  "!\" They ": 2235,
  "!\" Tom ": 2907,
  "!\" he ": 3322,
  "!\" said ": 2588,
  "!\" she ": 3081,
  "!\u00c3\u00a2\u00e2\u0082\u00ac ": 1568,
  "\"": 44,
  "\" ": 317,
  "#": 45,
  "$": 46,
  "%": 47,
  "&": 48,
  "'": 49,
  "'d ": 2936,
  "'ll ": 3046,
  "'re ": 1657,
  "'s": 2253,
  "'s ": 393,
  "'s a ": 1713,
  "'s mom ": 1551,
  "'t": 2616,
  "'t ": 428,
  "(": 50,
  ")": 51,
  "*": 52,
  "+": 53,
  ",": 54,
  ", ": 281,
  ", \"": 376,
  ", \"W": 2534,
  ", Lily": 3375,
  ", a ": 725,
  ", and ": 505,
  ", and a ": 4025,
  ", and he ": 2482,
  ", and it ": 3045,
  ", and she ": 2870,
  ", and the ": 1630,
  ", and they ": 2641,
  ", but ": 528,
  ", but he ": 1421,
  ", but it ": 3373,
  ", but she ": 1525,
  ", but the ": 2105,
  ", but they ": 3904,
  ", he ": 973,
  ", it ": 2615,
  ", she ": 780,
  ", so ": 1007,
  ", so he ": 1824,
  ", so she ": 1902,
  ", the ": 681,
  ", there was a ": 3760,
  ", they ": 1229,
  ", who ": 3472,
  ", you ": 3374,
  ", \u00c3\u00a2\u00e2\u0082\u00ac\u00c5\u0093": 2970,
  ",\"": 2838,
  ",\" ": 580,
  ",\" Ben ": 1860,
  ",\" Lily ": 2252,
  ",\" Tom ": 3284,
  ",\" he ": 2464,
  ",\" said ": 1464,
  ",\" said the ": 3372,
  ",\" she ": 1789,
  ",\" she said": 3371,
  ",\" the ": 3203,
  "-": 55,
  "- ": 1671,
  ".": 56,
  ". ": 269,
  ". \"": 383,
  ". \"G": 3588,
  ". \"H": 1451,
  ". \"Hello, ": 3419,
  ". \"I ": 3420,
  ". \"Let's ": 2281,
  ". \"Look, ": 2614,
  ". \"S": 3759,
  ". \"Thank you, ": 4024,
  ". \"W": 915,
  ". \"We ": 2376,
  ". \"What ": 3963,
  ". \"Wow, ": 2480,
  ". A": 488,
  ". A ": 1848,
  ". After ": 1567,
  ". After a ": 1755,
  ". After a whil": 2676,
  ". All ": 3516,
  ". All the ": 3044,
  ". An": 1766,
  ". And ": 1039,
  ". Anna": 3902,
  ". Anna ": 2397,
  ". As ": 1148,
  ". As he ": 3115,
  ". As she ": 2969,
  ". As they ": 3043,
  ". At the ": 2214,
  ". At the end of the ": 3283,
  ". B": 471,
  ". Ben ": 1620,
  ". Ben and ": 4023,
  ". Bo": 2065,
  ". Bob ": 2730,
  ". But": 3155,
  ". But ": 566,
  ". But the ": 1607,
  ". But then": 1490,
  ". But then ": 2417,
  ". But then, ": 2338,
  ". C": 1802,
  ". D": 3712,
  ". Do you want to ": 3589,
  ". E": 666,
  ". Em": 3836,
  ". Every": 1171,
  ". Every ": 1128,
  ". Every day ": 2118,
  ". Every day, ": 2132,
  ". Everyone ": 1472,
  ". F": 706,
  ". Fin": 1788,
  ". Finally, ": 2054,
  ". From ": 925,
  ". From that day ": 1196,
  ". From that day on, ": 1515,
  ". From that day on, Lily ": 3711,
  ". From that day on, the ": 3962,
  ". From then ": 1686,
  ". From then on, ": 2443,
  ". G": 2481,
  ". H": 311,
  ". He ": 318,
  ". He asked his ": 3644,
  ". He decided to ": 3901,
  ". He did not ": 2613,
  ". He felt ": 2337,
  ". He had ": 1847,
  ". He had a ": 3470,
  ". He is ": 2813,
  ". He knew ": 3587,
  ". He looked ": 2837,
  ". He loved to ": 3643,
  ". He said ": 2462,
  ". He said, \"": 2702,
  ". He saw a ": 3758,
  ". He thought ": 2729,
  ". He wanted to ": 1455,
  ". He was ": 928,
  ". He was so ": 3469,
  ". He was very ": 2317,
  ". Her ": 963,
  ". Her mom ": 1727,
  ". Her mommy ": 3370,
  ". His ": 1026,
  ". His mom ": 1941,
  ". I": 384,
  ". I ": 816,
  ". I am ": 3835,
  ". I love ": 3961,
  ". I will ": 3202,
  ". I'": 2039,
  ". I'm ": 2587,
  ". In": 1478,
  ". In the ": 2533,
  ". Insid": 2357,
  ". It ": 443,
  ". It is ": 1477,
  ". It is a ": 3642,
  ". It looked ": 3418,
  ". It was ": 798,
  ". It was a ": 1075,
  ". It was so ": 2356,
  ". It was very ": 3586,
  ". It's ": 2251,
  ". J": 1052,
  ". Jack ": 1728,
  ". Jan": 2442,
  ". Jane ": 2869,
  ". Jim": 3004,
  ". Joe ": 3903,
  ". John ": 2083,
  ". Just ": 2532,
  ". Just then": 3757,
  ". L": 1509,
  ". Lat": 3154,
  ". Let's ": 2377,
  ". Lily ": 683,
  ". Lily and ": 3005,
  ". Lily and Ben ": 3517,
  ". Lily was ": 2355,
  ". Lucy ": 2463,
  ". M": 598,
  ". Ma": 1629,
  ". Max ": 2038,
  ". May": 2558,
  ". Maybe ": 2586,
  ". Mia ": 2836,
  ". Molly ": 2812,
  ". Mom": 1964,
  ". Mom ": 1823,
  ". Mommy ": 2531,
  ". N": 1382,
  ". Now ": 3042,
  ". Now, ": 4022,
  ". On": 1396,
  ". On the ": 3710,
  ". One ": 1888,
  ". One da": 464,
  ". One day ": 1447,
  ". One day, ": 494,
  ". One day, Lily ": 3834,
  ". One day, a ": 1954,
  ". One day, he ": 1931,
  ". One day, she ": 1628,
  ". One day, the ": 1675,
  ". One day, they ": 1822,
  ". P": 1965,
  ". R": 3471,
  ". S": 308,
  ". Sally ": 3641,
  ". Sam ": 2189,
  ". Sara": 1997,
  ". Sara ": 2835,
  ". Sarah ": 3369,
  ". She ": 321,
  ". She asked her ": 3640,
  ". She felt ": 2354,
  ". She had ": 2114,
  ". She had a ": 3468,
  ". She looked ": 3201,
  ". She ran ": 3832,
  ". She said ": 1801,
  ". She said, \"": 1963,
  ". She wanted to ": 1627,
  ". She was ": 974,
  ". She was very ": 2250,
  ". She went ": 4021,
  ". So": 1739,
  ". So ": 1224,
  ". So he ": 3114,
  ". So, ": 1520,
  ". So, he ": 3639,
  ". So, she ": 3831,
  ". Some": 2834,
  ". Some ": 3833,
  ". Soon, ": 3756,
  ". Spot ": 2728,
  ". Su": 2906,
  ". Sudden": 815,
  ". Suddenly": 2234,
  ". Suddenly ": 3041,
  ". Suddenly, ": 987,
  ". Suddenly, a ": 2675,
  ". Suddenly, he ": 2727,
  ". Suddenly, she ": 2868,
  ". Suddenly, the ": 2674,
  ". Sue ": 3709,
  ". T": 293,
  ". Thank ": 3638,
  ". That ": 2530,
  ". The": 331,
  ". The ": 355,
  ". The bear ": 3417,
  ". The bird ": 1641,
  ". The boy ": 2557,
  ". The cat ": 3416,
  ". The dog ": 2213,
  ". The end.": 1751,
  ". The girl ": 2396,
  ". The little ": 4020,
  ". The little boy ": 3153,
  ". The little girl ": 1335,
  ". The man ": 2640,
  ". The moral of the story is ": 3960,
  ". The next ": 2506,
  ". The next day, ": 3900,
  ". Their ": 2507,
  ". Then": 1340,
  ". Then ": 1258,
  ". Then he ": 3200,
  ". Then she ": 3584,
  ". Then, ": 3585,
  ". There ": 1872,
  ". There were ": 3415,
  ". They ": 344,
  ". They a": 3515,
  ". They all ": 2010,
  ". They are ": 1174,
  ". They ask": 3830,
  ". They both ": 2233,
  ". They did not ": 2232,
  ". They had ": 1700,
  ". They liked to ": 3152,
  ". They said ": 2905,
  ". They say ": 4019,
  ". They see ": 2673,
  ". They wanted to ": 3637,
  ". They were ": 976,
  ". They were so ": 3514,
  ". They were very ": 3899,
  ". This ": 2336,
  ". Tim": 671,
  ". Tim ": 1246,
  ". Timmy ": 977,
  ". To": 1996,
  ". Toge": 3242,
  ". Tom": 1778,
  ". Tom ": 1200,
  ". Tom and ": 2904,
  ". Tommy ": 3898,
  ". W": 547,
  ". We ": 1038,
  ". We are ": 3321,
  ". We can ": 2672,
  ". Wh": 3755,
  ". When": 2037,
  ". When ": 793,
  ". When he ": 2335,
  ". When she ": 1953,
  ". When the ": 2726,
  ". When they got ": 3368,
  ". Wi": 2833,
  ". With": 3959,
  ". You ": 899,
  ". You are ": 1411,
  ". You can ": 2082,
  ". You have to ": 3583,
  ". \u00c3\u00a2\u00e2\u0082\u00ac\u00c5\u0093": 1701,
  ".\"": 3006,
  ".\" ": 431,
  ".\" \"": 1846,
  ".\" Ben ": 2968,
  ".\" But ": 3708,
  ".\" He ": 3897,
  ".\" Lily ": 1429,
  ".\" S": 1685,
  ".\" She ": 2585,
  ".\" So ": 2867,
  ".\" The ": 1074,
  ".\" They ": 1541,
  ".\" Tim ": 3958,
  ".\" Tom ": 3754,
  ".\u00c3\u00a2\u00e2\u0082\u00ac ": 1603,
  ".\u00c3\u00a2\u00e2\u0082\u00ac The ": 3829,
  "/": 57,
  "0": 58,
  "1": 59,
  "2": 60,
  "3": 61,
  "3 year": 2811,
  "4": 62,
  "5": 63,
  "6": 64,
  "7": 65,
  "8": 66,
  "9": 67,
  ":": 68,
  ": ": 1386,
  ": \"": 1913,
  ";": 69,
  "<": 70,
  "<assistant>": 7,
  "<bos>": 1,
  "<eos>": 2,
  "<mask>": 4,
  "<pad>": 0,
  "<system>": 5,
  "<think>": 9,
  "<tool>": 8,
  "<unk>": 3,
  "<user>": 6,
  "=": 71,
  ">": 72,
  "?": 73,
  "? ": 1195,
  "? W": 3467,
  "?\"": 1813,
  "?\" ": 533,
  "?\" \"": 2176,
  "?\" Her mom ": 3513,
  "?\" Lily ": 2967,
  "?\" Lily ask": 4018,
  "?\" The ": 1297,
  "?\" asked ": 3636,
  "?\" he ": 3512,
  "?\" she ": 3896,
  "?\u00c3\u00a2\u00e2\u0082\u00ac ": 2300,
  "@": 74,
  "A": 75,
  "An": 814,
  "And": 3511,
  "And ": 2265,
  "Anna": 1172,
  "Anna ": 1358,
  "Anna and Ben ": 3466,
  "B": 76,
  "Be": 3320,
  "Ben": 688,
  "Ben ": 637,
  "Ben and ": 2036,
  "Ben, ": 2395,
  "Benny ": 3510,
  "Billy ": 3040,
  "Bo": 1087,
  "Bob": 1940,
  "Bob ": 1684,
  "But ": 1254,
  "C": 77,
  "Can ": 1033,
  "Can I ": 1699,
  "Can we ": 2035,
  "Can you ": 2505,
  "Ch": 3895,
  "Come ": 2903,
  "D": 78,
  "Da": 776,
  "Dad": 2902,
  "Dad ": 1887,
  "Dadd": 3707,
  "Daddy ": 2375,
  "Dais": 1328,
  "Daisy ": 1845,
  "Do ": 1364,
  "Do you ": 1454,
  "Do you want to ": 2175,
  "Don't ": 1476,
  "Don't wor": 2009,
  "Don't worry, ": 2556,
  "E": 79,
  "Ell": 3706,
  "Em": 2353,
  "End": 3957,
  "F": 80,
  "Fluff": 2966,
  "G": 81,
  "Gran": 1812,
  "Grand": 1962,
  "Grandma": 3705,
  "Grandma ": 4017,
  "H": 82,
  "He ": 946,
  "Her ": 1489,
  "Her mom ": 2188,
  "His ": 1726,
  "His mom ": 2901,
  "I": 83,
  "I ": 477,
  "I am ": 2529,
  "I can ": 2131,
  "I don't ": 2021,
  "I don't know": 3465,
  "I love ": 3319,
  "I want to ": 2612,
  "I will ": 2249,
  "I'": 937,
  "I'll ": 3282,
  "I'm": 3828,
  "I'm ": 1111,
  "I'm sorry, ": 2810,
  "It": 2231,
  "It ": 1166,
  "It's ": 1420,
  "It's a ": 3080,
  "J": 84,
  "Ja": 633,
  "Jack": 1091,
  "Jack ": 887,
  "Jack and ": 2212,
  "Jack and Jill ": 3894,
  "Jake ": 3414,
  "Jan": 1228,
  "Jane ": 1821,
  "Jen": 3704,
  "Jill": 3464,
  "Jill ": 2352,
  "Jim": 1871,
  "Jimmy ": 3281,
  "Jo": 648,
  "Joe ": 1596,
  "Joh": 889,
  "John": 1602,
  "John ": 1122,
  "John and ": 3956,
  "K": 85,
  "Kitt": 2965,
  "L": 86,
  "Let": 824,
  "Let's ": 893,
  "Let\u00c3\u00a2\u00e2\u0082\u00acTMs ": 3582,
  "Li": 3241,
  "Lil": 364,
  "Lila": 1978,
  "Lila ": 2081,
  "Lily": 611,
  "Lily ": 453,
  "Lily and ": 823,
  "Lily and Ben ": 1524,
  "Lily and Max ": 3893,
  "Lily ask": 3199,
  "Lily's ": 1147,
  "Lily's mom ": 2701,
  "Lily, ": 1912,
  "Lily. She ": 1190,
  "Look": 1333,
  "Look, ": 1922,
  "Luc": 919,
  "Lucy ": 1137,
  "M": 87,
  "Ma": 757,
  "Mama ": 4016,
  "Mar": 2479,
  "Mary ": 3280,
  "Max": 1436,
  "Max ": 1307,
  "Maybe ": 1977,
  "Mi": 1049,
  "Mia": 1765,
  "Mia ": 1483,
  "Moll": 2351,
  "Molly ": 2174,
  "Mom": 756,
  "Mom ": 1249,
  "Mom and ": 3509,
  "Mom, ": 2150,
  "Mommy": 2610,
  "Mommy ": 2096,
  "Mommy, ": 2187,
  "Mr": 2611,
  "Mum": 2900,
  "My ": 3003,
  "N": 88,
  "No, ": 1357,
  "Now ": 3113,
  "O": 89,
  "OK": 2173,
  "OK, ": 3703,
  "Of cour": 3002,
  "Oh ": 2639,
  "Oh no": 3151,
  "Ok": 2280,
  "Okay, ": 3001,
  "On": 348,
  "Once ": 429,
  "Once there was a ": 1280,
  "Once upon a tim": 462,
  "Once upon a time ": 845,
  "Once upon a time there was a ": 945,
  "Once upon a time there were two ": 3581,
  "Once upon a time, ": 521,
  "Once upon a time, in a ": 3318,
  "Once upon a time, there was a ": 554,
  "Once upon a time, there was a big ": 3635,
  "Once upon a time, there was a boy named ": 3634,
  "Once upon a time, there was a little ": 2350,
  "Once upon a time, there was a little boy named ": 1683,
  "Once upon a time, there was a little boy named Timmy. Timmy ": 2609,
  "Once upon a time, there was a little girl named ": 1080,
  "Once upon a time, there was a little girl named Lily. She ": 1371,
  "Once upon a time, there was a little girl named Lily. She loved to ": 3240,
  "Once upon a time, there was a little girl named Lily. She loved to play ": 2608,
  "Once upon a time, there were two ": 3317,
  "One da": 437,
  "One day, ": 2225,
  "One day, a ": 2080,
  "P": 90,
  "Pet": 2866,
  "Plea": 3239,
  "Q": 91,
  "R": 92,
  "Ro": 2584,
  "S": 93,
  "Sall": 3702,
  "Sally ": 3238,
  "Sam": 786,
  "Sam ": 1186,
  "Sam and ": 3198,
  "Sara": 940,
  "Sara ": 2782,
  "Sara and ": 4015,
  "Sarah": 2638,
  "Sarah ": 1844,
  "She ": 1025,
  "Spo": 1544,
  "Spot": 2781,
  "Spot ": 2637,
  "Su": 1353,
  "Sue": 4014,
  "Sue ": 1995,
  "Sure": 2528,
  "Sure, ": 3150,
  "T": 94,
  "TV": 3892,
  "Thank ": 1288,
  "Thank you ": 2899,
  "Thank you, ": 1764,
  "That": 2935,
  "That ": 1750,
  "That's ": 2053,
  "That's a ": 3955,
  "The": 944,
  "The ": 539,
  "They ": 1047,
  "This ": 1698,
  "This is ": 2780,
  "Tim": 518,
  "Tim ": 1146,
  "Tim and ": 1976,
  "Timmy": 1094,
  "Timmy ": 971,
  "Timmy and ": 3413,
  "Timmy's ": 2898,
  "Timmy's mom ": 4013,
  "Timmy. Timmy ": 1975,
  "To": 3112,
  "Tom": 705,
  "Tom ": 883,
  "Tom and ": 1579,
  "Tom, ": 2779,
  "Tommy ": 2865,
  "Tweet": 3039,
  "U": 95,
  "V": 96,
  "W": 97,
  "We ": 3079,
  "X": 98,
  "Y": 99,
  "Yes": 2964,
  "Yes, ": 1083,
  "You": 551,
  "You ": 680,
  "You are ": 1004,
  "You're ": 2441,
  "You're welcom": 3633,
  "Z": 100,
  "[": 101,
  "\\": 102,
  "]": 103,
  "^": 104,
  "_": 105,
  "`": 106,
  "a": 107,
  "a ": 323,
  "a big ": 1578,
  "a good ": 2607,
  "able ": 2700,
  "able to ": 3463,
  "about ": 2478,
  "ach": 3412,
  "ad": 1650,
  "ag": 1670,
  "again": 1619,
  "agre": 3891,
  "air": 2064,
  "ak": 2864,
  "al": 542,
  "al ": 682,
  "all": 1028,
  "all ": 1514,
  "all the ": 2299,
  "ally ": 999,
  "ally, ": 1494,
  "also ": 2149,
  "always ": 1245,
  "am": 340,
  "am ": 1205,
  "ama": 1930,
  "ama ": 2148,
  "amaz": 3367,
  "an": 300,
  "an ": 371,
  "an idea": 1939,
  "an to ": 1185,
  "and": 760,
  "and ": 309,
  "and the ": 3753,
  "andy ": 3954,
  "ang": 2440,
  "ange": 3827,
  "angr": 2248,
  "animal": 1428,
  "animals ": 2963,
  "another ": 3279,
  "ant": 3149,
  "ant ": 1363,
  "any": 1800,
  "any ": 3038,
  "app": 2374,
  "ar": 287,
  "ar ": 822,
  "ara": 765,
  "ara ": 1427,
  "ard": 653,
  "ard ": 623,
  "are ": 1141,
  "ark": 988,
  "ark ": 2172,
  "around": 1811,
  "around ": 890,
  "around the ": 2095,
  "arri": 3148,
  "ary ": 1669,
  "as ": 2224,
  "ask": 650,
  "asked": 3889,
  "asked ": 1370,
  "asked her ": 1535,
  "asked his ": 2094,
  "asked the ": 2606,
  "asked, \"W": 3111,
  "at": 445,
  "at ": 333,
  "at the ": 1098,
  "ate ": 1668,
  "ati": 1519,
  "ation": 2439,
  "away": 3890,
  "ay": 1276,
  "ay, ": 1961,
  "b": 108,
  "b ": 914,
  "ba": 385,
  "baby ": 1929,
  "back": 700,
  "back ": 675,
  "back and ": 2034,
  "back hom": 1974,
  "back in the ": 3952,
  "back to ": 1482,
  "back to his ": 4010,
  "back to the ": 1640,
  "backyard": 3147,
  "bad": 1901,
  "bad ": 1649,
  "bag": 2555,
  "bag ": 3236,
  "balan": 3632,
  "ball": 848,
  "ball ": 1550,
  "ball and ": 3197,
  "ballo": 1667,
  "balloon": 2461,
  "balloon ": 3278,
  "ban": 3366,
  "bar": 2671,
  "bark": 2962,
  "bask": 2527,
  "basket": 3826,
  "bath": 2279,
  "bb": 617,
  "bby ": 3580,
  "be": 341,
  "be ": 472,
  "be careful": 2130,
  "bea": 761,
  "beach": 2373,
  "bear": 1375,
  "bear ": 1272,
  "beauti": 927,
  "beautiful": 2078,
  "beautiful ": 1090,
  "became ": 1389,
  "because ": 902,
  "because he ": 3037,
  "because it ": 3315,
  "because she ": 2394,
  "become ": 3888,
  "bed": 1555,
  "bed ": 3953,
  "bed and ": 3237,
  "bee": 3507,
  "bee ": 3887,
  "been": 3146,
  "been ": 1435,
  "befor": 1279,
  "before": 2186,
  "before ": 1618,
  "beg": 1227,
  "began to ": 1459,
  "beh": 1586,
  "behind ": 1732,
  "behind the ": 3277,
  "being ": 1296,
  "belie": 2298,
  "believe ": 2460,
  "belong": 3196,
  "ben": 2809,
  "ber": 2104,
  "best": 3316,
  "best ": 989,
  "better": 1312,
  "better ": 1819,
  "better and ": 3701,
  "bi": 2199,
  "big": 406,
  "big ": 473,
  "big and ": 1712,
  "big h": 3314,
  "big hug": 2117,
  "big, ": 1176,
  "bigg": 2751,
  "bigger ": 4009,
  "bigger and ": 3365,
  "bir": 553,
  "bird": 908,
  "bird ": 690,
  "bird and ": 3411,
  "birds ": 2961,
  "birth": 2832,
  "bit": 4012,
  "bit ": 1410,
  "bl": 3752,
  "bla": 1994,
  "black": 3750,
  "black ": 2934,
  "blan": 2093,
  "blank": 2604,
  "blanket": 3276,
  "ble": 909,
  "ble ": 898,
  "ble to ": 1777,
  "blo": 1264,
  "block": 1534,
  "blow": 4011,
  "blu": 1145,
  "blue": 2960,
  "blue ": 1577,
  "bo": 382,
  "board": 3145,
  "board ": 3461,
  "boat": 1763,
  "boat ": 1738,
  "book": 1102,
  "book ": 2778,
  "bor": 1820,
  "both ": 1048,
  "bott": 2264,
  "bought ": 3751,
  "boun": 2636,
  "bout ": 744,
  "bow": 1697,
  "bow ": 3508,
  "box": 1032,
  "box ": 1595,
  "box and ": 2160,
  "boy": 2526,
  "boy ": 600,
  "boy named ": 1900,
  "br": 693,
  "bra": 876,
  "bran": 2247,
  "brave": 2333,
  "brave ": 1299,
  "brave and ": 2438,
  "brea": 1362,
  "break": 2263,
  "brid": 3951,
  "brigh": 1213,
  "bright": 2349,
  "bright ": 1899,
  "bring ": 3700,
  "bro": 1395,
  "brok": 1356,
  "broke ": 3824,
  "broken": 3410,
  "broken ": 2863,
  "brother": 2159,
  "brother ": 2278,
  "brough": 3825,
  "brought ": 2334,
  "brown ": 4008,
  "bru": 3000,
  "bu": 609,
  "bubb": 2437,
  "buck": 2103,
  "bucket ": 3886,
  "bug": 1244,
  "bug ": 2198,
  "buil": 1744,
  "build": 3579,
  "build ": 2932,
  "bun": 1626,
  "bunny ": 2008,
  "bur": 2605,
  "bus": 2079,
  "bush": 3110,
  "busy ": 3950,
  "but": 3462,
  "but ": 446,
  "but he ": 3578,
  "butt": 2933,
  "butter": 1352,
  "butterfly": 3506,
  "butterfly ": 2332,
  "button": 3885,
  "buy ": 2147,
  "by": 966,
  "by ": 831,
  "by the ": 2171,
  "c": 109,
  "ca": 411,
  "cab": 3577,
  "cake": 2725,
  "cake ": 2102,
  "cal": 2748,
  "call": 878,
  "called ": 1066,
  "calm": 3699,
  "cam": 596,
  "came ": 632,
  "came and ": 3409,
  "came to ": 2436,
  "came to the ": 3749,
  "can": 968,
  "can ": 564,
  "can I ": 2554,
  "can be ": 3143,
  "can make ": 4007,
  "can't ": 1731,
  "cand": 2020,
  "car": 404,
  "car ": 1263,
  "car and ": 3698,
  "care": 771,
  "care ": 2007,
  "carefu": 1585,
  "careful": 1274,
  "careful ": 1666,
  "careful and ": 3363,
  "carefull": 3630,
  "carefully ": 1986,
  "carri": 2699,
  "carro": 2807,
  "carry ": 3823,
  "cars and ": 3822,
  "cast": 1832,
  "castle": 2393,
  "cat": 986,
  "cat ": 1238,
  "catch": 2931,
  "catch ": 2146,
  "caught ": 3195,
  "cause ": 875,
  "cave": 4095,
  "cc": 2052,
  "ccep": 3460,
  "ccid": 3274,
  "ce": 647,
  "ce ": 368,
  "ce and ": 1898,
  "ce, ": 2750,
  "cele": 2670,
  "celebra": 2959,
  "ces": 1388,
  "ch": 346,
  "ch ": 495,
  "ch a ": 2051,
  "ch and ": 2776,
  "cha": 1320,
  "chair": 3949,
  "chan": 2749,
  "che": 792,
  "cheer": 1725,
  "cher": 3821,
  "chick": 3408,
  "chil": 1294,
  "child ": 4094,
  "childr": 1584,
  "children": 3077,
  "children ": 2230,
  "cho": 2112,
  "choco": 3697,
  "choo": 1787,
  "ci": 1345,
  "cient ": 4006,
  "cir": 2777,
  "circle": 3948,
  "ck": 325,
  "ck ": 452,
  "cl": 931,
  "cla": 1327,
  "clapp": 2775,
  "clapped ": 3947,
  "cle": 949,
  "clean": 1508,
  "clean ": 2019,
  "clear": 3364,
  "clim": 1199,
  "climb": 1434,
  "climb ": 2831,
  "climbed ": 2297,
  "clo": 698,
  "clos": 1036,
  "close": 2958,
  "close ": 2747,
  "closer": 2416,
  "closer ": 1985,
  "closer and ": 3362,
  "closer look": 3820,
  "clothe": 2092,
  "cloud": 2246,
  "clu": 3631,
  "co": 501,
  "col": 1003,
  "cold": 2583,
  "cold ": 2262,
  "cold and ": 4092,
  "coll": 2504,
  "collec": 2999,
  "color": 1194,
  "colorful ": 2553,
  "colors and ": 4091,
  "colour": 2435,
  "com": 571,
  "come ": 980,
  "comes ": 3576,
  "comfor": 2830,
  "coming ": 1749,
  "con": 1082,
  "confu": 2897,
  "confused": 4090,
  "cont": 3884,
  "continu": 1799,
  "continued ": 4089,
  "continued to ": 3036,
  "coo": 3076,
  "cook": 1409,
  "cookies": 3235,
  "cool": 2211,
  "cor": 1566,
  "corn": 3109,
  "cou": 616,
  "could": 759,
  "could ": 560,
  "could not ": 2698,
  "couldn't ": 819,
  "couldn't believe ": 2998,
  "couldn't find ": 2552,
  "couldn't wait to ": 2415,
  "coun": 1843,
  "cour": 2372,
  "coura": 3883,
  "cover": 1859,
  "cozy ": 4093,
  "cr": 1960,
  "cra": 1060,
  "craw": 2603,
  "cray": 2091,
  "crayon": 2331,
  "cre": 791,
  "cream": 1776,
  "cream ": 3108,
  "creat": 2774,
  "creati": 3575,
  "cri": 1400,
  "cro": 1617,
  "cross": 2773,
  "cross the ": 3234,
  "cry": 1275,
  "ct": 961,
  "ct ": 2113,
  "cu": 975,
  "cup": 2808,
  "cur": 3275,
  "curi": 1209,
  "curious": 2077,
  "curious ": 4088,
  "curious and ": 2896,
  "cush": 4005,
  "cut": 2348,
  "cut ": 3144,
  "cy ": 3078,
  "d": 110,
  "d ": 267,
  "d and ": 806,
  "da": 332,
  "dad": 1344,
  "dad ": 953,
  "dan": 1163,
  "danc": 2062,
  "danger": 2090,
  "dangerous": 3075,
  "dark": 1921,
  "dark ": 2772,
  "day": 778,
  "day ": 642,
  "day and ": 2296,
  "day long": 3193,
  "day, ": 886,
  "day, the ": 3192,
  "day.": 2957,
  "dd": 507,
  "ddy ": 1606,
  "de": 731,
  "de ": 585,
  "dea": 3194,
  "dec": 629,
  "decid": 644,
  "decided ": 3407,
  "decided to ": 687,
  "decided to go ": 2458,
  "deep": 3505,
  "deep ": 2277,
  "deep brea": 4004,
  "deli": 1450,
  "delici": 1775,
  "delicious": 3406,
  "delicious ": 2635,
  "delight": 3574,
  "der": 753,
  "der ": 1394,
  "des": 2459,
  "dest": 3818,
  "di": 685,
  "did": 673,
  "did ": 635,
  "did not ": 748,
  "did not want to ": 3074,
  "did you ": 3573,
  "didn't ": 726,
  "didn't know ": 3817,
  "didn't know what ": 2697,
  "didn't know what to do": 3572,
  "didn't want to ": 1858,
  "diff": 1223,
  "differ": 1311,
  "different": 3629,
  "different ": 1560,
  "din": 1441,
  "dinner": 2392,
  "dirt": 1897,
  "dis": 1583,
  "disa": 2050,
  "disappear": 3313,
  "discover": 2997,
  "dist": 3361,
  "do": 440,
  "do ": 774,
  "do it": 2669,
  "do not ": 2503,
  "do you ": 2582,
  "doct": 2316,
  "doctor": 3946,
  "doctor ": 3504,
  "does ": 1737,
  "does not ": 1984,
  "dog": 1045,
  "dog ": 1024,
  "dog named ": 3696,
  "doll": 1180,
  "doll ": 2434,
  "don": 2063,
  "don't ": 964,
  "done": 3819,
  "done ": 2771,
  "done, ": 4003,
  "door": 1350,
  "door ": 3273,
  "door and ": 2806,
  "down": 678,
  "down ": 1374,
  "down and ": 1837,
  "down the ": 1881,
  "dr": 1057,
  "dra": 1204,
  "drag": 2724,
  "draw": 1896,
  "draw ": 4002,
  "dre": 907,
  "dream": 1959,
  "dream ": 3816,
  "dress": 1973,
  "dress ": 2330,
  "dri": 1540,
  "driver ": 3815,
  "dro": 1317,
  "dropp": 3459,
  "dropped the ": 4087,
  "drove ": 2668,
  "dry ": 3882,
  "du": 1463,
  "duck": 2805,
  "duck ": 3312,
  "dy ": 852,
  "e": 111,
  "e ": 266,
  "e and ": 442,
  "e and the ": 2329,
  "e da": 426,
  "e is ": 2723,
  "e the ": 713,
  "e to ": 741,
  "e to the ": 2581,
  "e was ": 1096,
  "e, ": 388,
  "e, but ": 1471,
  "e, he ": 2502,
  "e, she ": 2551,
  "e, the ": 1886,
  "e-": 3945,
  "e.": 1349,
  "e. ": 1303,
  "e. He ": 849,
  "e. She ": 901,
  "e. She was ": 4086,
  "e. The ": 1065,
  "e. They ": 1222,
  "ea": 475,
  "each ": 858,
  "each other": 1093,
  "each other ": 3191,
  "each other and ": 2477,
  "each other. They ": 3881,
  "eal": 2145,
  "ear": 640,
  "eat": 1316,
  "eat ": 1326,
  "eating ": 4085,
  "ec": 465,
  "ed": 360,
  "ed ": 276,
  "ed a": 817,
  "ed a ": 913,
  "ed about ": 3747,
  "ed again": 2696,
  "ed all ": 3814,
  "ed and ": 400,
  "ed as ": 2076,
  "ed away": 3571,
  "ed away ": 3944,
  "ed her ": 595,
  "ed him": 3458,
  "ed him ": 3073,
  "ed his ": 799,
  "ed in ": 3880,
  "ed in the ": 3627,
  "ed it": 1505,
  "ed it ": 941,
  "ed it and ": 3748,
  "ed some ": 2550,
  "ed something ": 1938,
  "ed that ": 788,
  "ed that he ": 3457,
  "ed that she ": 3626,
  "ed the ": 434,
  "ed their ": 1648,
  "ed to ": 320,
  "ed to be ": 2501,
  "ed to the ": 1674,
  "ed with ": 1433,
  "ed, ": 1407,
  "ed, \"": 962,
  "ed, \"W": 2295,
  "ed, \u00c3\u00a2\u00e2\u0082\u00ac\u00c5\u0093": 3625,
  "ed.": 3628,
  "ed. \"": 1361,
  "ed. He ": 1306,
  "ed. She ": 1217,
  "ed. The ": 1616,
  "ed. They ": 2433,
  "ek": 1637,
  "el": 574,
  "el ": 1021,
  "ele": 2667,
  "elephan": 3142,
  "ell": 625,
  "ello, ": 2101,
  "elp": 3311,
  "else": 2804,
  "else ": 2862,
  "ely ": 2895,
  "em": 1153,
  "embarra": 3503,
  "ement": 3107,
  "en": 286,
  "en ": 337,
  "en and ": 1565,
  "end": 408,
  "end ": 775,
  "end of the ": 2315,
  "end.": 1507,
  "ener": 2803,
  "eng": 3190,
  "enjo": 3141,
  "enjoy": 1393,
  "enjoyed ": 3189,
  "enjoyed the ": 3310,
  "enny ": 2861,
  "enough": 1743,
  "enough ": 2580,
  "ent": 489,
  "ent ": 451,
  "ent and ": 2666,
  "ep": 541,
  "ep ": 979,
  "epen": 4000,
  "ependa": 4001,
  "er": 273,
  "er ": 295,
  "er and ": 668,
  "er that ": 2665,
  "er that day, ": 3746,
  "er was ": 2995,
  "er, ": 2829,
  "er. He ": 3072,
  "er. She ": 3943,
  "er. The ": 3942,
  "era": 3035,
  "ere ": 329,
  "ers": 3813,
  "ers ": 2328,
  "es": 381,
  "es ": 479,
  "es a ": 2549,
  "es and ": 782,
  "es to ": 2894,
  "es were ": 3941,
  "es, ": 863,
  "es. He ": 2956,
  "es. She ": 2770,
  "es. They ": 4084,
  "esca": 3456,
  "est": 1774,
  "est ": 1332,
  "et": 463,
  "et ": 921,
  "et and ": 1271,
  "et me ": 3745,
  "eter": 3405,
  "etermin": 4083,
  "ev": 777,
  "even": 3233,
  "even ": 1019,
  "even more ": 2802,
  "event": 2476,
  "eventu": 2695,
  "eventually ": 3232,
  "ever": 1513,
  "ever ": 1343,
  "ever after": 3404,
  "every": 830,
  "every ": 1053,
  "every day": 1682,
  "every day ": 4082,
  "everyone ": 1325,
  "everything ": 2229,
  "everywher": 3188,
  "ex": 461,
  "exam": 3502,
  "exc": 575,
  "excit": 582,
  "excited": 1895,
  "excited ": 3624,
  "excited and ": 2500,
  "excited to ": 1681,
  "excited. She ": 4081,
  "expensi": 3999,
  "explain": 2722,
  "explor": 857,
  "explore": 3231,
  "explore ": 2391,
  "explore the ": 1773,
  "exploring the ": 3812,
  "ey": 1031,
  "ey ": 2996,
  "ey, ": 3695,
  "eyes": 2144,
  "eyes ": 2955,
  "eyes and ": 2129,
  "ez": 1972,
  "f": 112,
  "f ": 583,
  "f cour": 2930,
  "fa": 534,
  "face": 1798,
  "face ": 3359,
  "face and ": 3693,
  "fair": 1797,
  "fairy ": 3940,
  "fall": 2498,
  "fam": 1010,
  "famil": 1696,
  "family ": 1462,
  "fan": 2664,
  "fancy ": 3879,
  "far": 1070,
  "far away": 3878,
  "farm": 1564,
  "farmer ": 2293,
  "fast": 985,
  "fast ": 2801,
  "fast and ": 2893,
  "faster and ": 3939,
  "fav": 1549,
  "favor": 1748,
  "favorite ": 1831,
  "fe": 395,
  "fea": 3230,
  "feather": 4080,
  "feel": 866,
  "feel ": 1156,
  "feel better": 2746,
  "feeling ": 1160,
  "feeling very ": 2954,
  "feels ": 3229,
  "fel": 546,
  "fell": 2694,
  "fell ": 2075,
  "fell a": 3569,
  "felt ": 567,
  "felt a ": 2326,
  "felt sad and ": 3811,
  "felt so ": 1810,
  "felt very ": 2693,
  "fen": 2499,
  "fence": 3877,
  "few ": 1910,
  "ff": 826,
  "fi": 509,
  "fie": 2276,
  "field": 3187,
  "fig": 2721,
  "fight": 2327,
  "figure ": 3692,
  "fill": 1533,
  "filled with ": 2390,
  "fin": 1006,
  "finally ": 1928,
  "find": 2663,
  "find ": 729,
  "find a ": 2223,
  "find the ": 3309,
  "fing": 3360,
  "fini": 1870,
  "finished": 2769,
  "finished ": 3106,
  "fir": 1144,
  "fire": 2100,
  "fire ": 3568,
  "first": 1818,
  "first ": 2634,
  "fish": 1248,
  "fish ": 1539,
  "fish and ": 3691,
  "fit ": 3694,
  "fix": 2185,
  "fix ": 2994,
  "fix the ": 3998,
  "fl": 2294,
  "fla": 1911,
  "flash": 3810,
  "fle": 1002,
  "flew": 1523,
  "flew ": 1532,
  "flew away": 2892,
  "fli": 3570,
  "flo": 1406,
  "float": 3034,
  "floor": 2018,
  "flow": 837,
  "flower": 1035,
  "flower ": 1869,
  "flowers": 3567,
  "flowers ": 3997,
  "flowers and ": 3876,
  "fly": 1212,
  "fly ": 1373,
  "flying": 3501,
  "flying ": 3623,
  "fo": 900,
  "fold": 3622,
  "follow": 1339,
  "followed the ": 3105,
  "foo": 1051,
  "food": 1880,
  "food ": 2414,
  "foot": 3566,
  "for": 359,
  "for ": 506,
  "for a ": 784,
  "for a long ": 2720,
  "for a moment": 2371,
  "for a whil": 3938,
  "for being ": 2525,
  "for help": 1952,
  "for her": 2662,
  "for her ": 1857,
  "for him": 2275,
  "for his ": 1958,
  "for the ": 1015,
  "for you": 2089,
  "fore": 1030,
  "forest": 1458,
  "forest ": 2929,
  "forever": 3186,
  "forgo": 2325,
  "forgot": 3358,
  "found ": 634,
  "found a ": 960,
  "found a big ": 3140,
  "found the ": 2061,
  "fox": 2993,
  "fox ": 2222,
  "fr": 555,
  "fra": 2457,
  "fre": 1711,
  "fri": 416,
  "friend": 441,
  "friend ": 1020,
  "friend, ": 2891,
  "friendly": 3565,
  "friendly ": 2432,
  "friends": 631,
  "friends ": 811,
  "friends and ": 2143,
  "friends, ": 2890,
  "friends.": 2370,
  "friends. They ": 1742,
  "fro": 1446,
  "frog": 2314,
  "frog ": 2413,
  "from": 772,
  "from ": 1050,
  "from a ": 3500,
  "from his ": 3621,
  "from the ": 994,
  "fron": 2992,
  "front ": 3690,
  "fru": 1841,
  "fruit": 3689,
  "ft": 657,
  "ft ": 2170,
  "fter": 1152,
  "fter ": 1079,
  "fter a ": 1512,
  "fu": 444,
  "ful": 749,
  "ful ": 603,
  "ful and ": 2768,
  "full": 3357,
  "full ": 2017,
  "full of ": 2184,
  "fun": 520,
  "fun ": 855,
  "fun and ": 2860,
  "funny ": 2369,
  "fur": 1842,
  "g": 113,
  "g ": 679,
  "ga": 485,
  "gain": 628,
  "gain ": 2367,
  "gam": 1127,
  "game": 2953,
  "game ": 2474,
  "gara": 3403,
  "gard": 930,
  "garden": 1095,
  "garden ": 2049,
  "gather": 2928,
  "gave ": 810,
  "gave her a ": 2692,
  "gave him a ": 2691,
  "gave the ": 3185,
  "ge": 410,
  "ge ": 911,
  "ge and ": 2524,
  "ged ": 2475,
  "gener": 3809,
  "gent": 1747,
  "gentle ": 3620,
  "ger": 1385,
  "ger ": 2016,
  "get": 2927,
  "get ": 790,
  "get a ": 3228,
  "get the ": 2324,
  "getting ": 1894,
  "gg": 2142,
  "gh": 386,
  "gho": 3808,
  "gi": 684,
  "giant ": 3875,
  "gift": 3139,
  "gigg": 2828,
  "gir": 447,
  "girl": 1069,
  "girl ": 480,
  "girl named ": 2183,
  "give ": 1151,
  "give up": 3996,
  "gives ": 3272,
  "gla": 1287,
  "glad ": 1488,
  "glow": 4079,
  "go": 409,
  "go ": 558,
  "go and ": 3308,
  "go hom": 1548,
  "go to ": 2767,
  "go to the ": 1614,
  "going ": 1615,
  "going to ": 1993,
  "gone": 2368,
  "gone ": 4078,
  "goo": 627,
  "good": 982,
  "good ": 865,
  "good at ": 3995,
  "goodby": 1235,
  "got ": 734,
  "got a ": 3402,
  "got to ": 3356,
  "got very ": 3937,
  "gr": 559,
  "gra": 738,
  "grab": 3874,
  "grabb": 1392,
  "grabbed the ": 2690,
  "grand": 1601,
  "grandma": 2689,
  "grass": 2006,
  "grass and ": 3355,
  "grate": 2366,
  "grateful ": 3271,
  "gre": 689,
  "great": 3619,
  "great ": 1331,
  "green ": 1786,
  "ground": 1219,
  "ground ": 2088,
  "ground and ": 4077,
  "group ": 3499,
  "grow": 2602,
  "gu": 1270,
  "h": 114,
  "h ": 1155,
  "h, ": 3873,
  "ha": 290,
  "had": 3270,
  "had ": 372,
  "had a ": 615,
  "had a big ": 2004,
  "had a great ": 2688,
  "had a lot of ": 2579,
  "had a wonderful ": 3354,
  "had an idea": 2859,
  "had been ": 2719,
  "had lots of fun": 4076,
  "had many ": 3743,
  "had so much fun ": 4075,
  "had to ": 2005,
  "hair": 1817,
  "han": 827,
  "hand": 958,
  "hand ": 3564,
  "hand and ": 3871,
  "hands": 3617,
  "hands and ": 2687,
  "hank ": 1170,
  "happ": 389,
  "happen": 1108,
  "happened": 1856,
  "happil": 3184,
  "happily ": 2048,
  "happy": 643,
  "happy ": 591,
  "happy again": 3353,
  "happy and ": 825,
  "happy that ": 2745,
  "happy to ": 3183,
  "happy, ": 3401,
  "happy.": 2169,
  "happy. He ": 4074,
  "happy. She ": 3104,
  "happy. They ": 2456,
  "har": 2141,
  "hard": 1879,
  "hard ": 1457,
  "hard and ": 3269,
  "has ": 2182,
  "has a ": 2116,
  "hat": 1136,
  "hat ": 497,
  "hat are you ": 2578,
  "hat are you do": 2926,
  "hat is ": 1518,
  "hat's ": 1302,
  "hav": 2766,
  "have ": 496,
  "have a ": 1158,
  "have fun": 1885,
  "have some ": 2800,
  "have to ": 1381,
  "have to be ": 2661,
  "having ": 1724,
  "having a ": 3742,
  "having fun": 3870,
  "he": 301,
  "he ": 282,
  "he could ": 1097,
  "he had ": 957,
  "he had to ": 3455,
  "he wanted to ": 2313,
  "he was ": 843,
  "he would ": 1840,
  "hea": 983,
  "head": 1665,
  "head ": 3070,
  "head and ": 3268,
  "heal": 2577,
  "health": 3454,
  "hear": 1384,
  "hear ": 3032,
  "heard ": 835,
  "heard a ": 1169,
  "heard a loud ": 3453,
  "heard the ": 3069,
  "heart": 3741,
  "heav": 2128,
  "heavy ": 3936,
  "hed": 1398,
  "held ": 1736,
  "hell": 2744,
  "hello": 4073,
  "help": 510,
  "help ": 862,
  "help me ": 3352,
  "help the ": 3869,
  "help you": 2548,
  "help you ": 3031,
  "helped ": 1992,
  "helped her ": 3935,
  "hen": 1005,
  "hen ": 636,
  "her": 613,
  "her ": 373,
  "her a ": 2003,
  "her and ": 2347,
  "her mom": 2523,
  "her mom ": 1262,
  "her mommy ": 2522,
  "here": 2292,
  "here ": 1125,
  "herself": 3138,
  "hid": 1445,
  "hid ": 3744,
  "hide and ": 3688,
  "high": 1324,
  "high ": 2547,
  "hill": 2412,
  "him": 516,
  "him ": 764,
  "him a ": 2087,
  "him and ": 1919,
  "himself": 2889,
  "hin": 3872,
  "his": 2827,
  "his ": 402,
  "his dad ": 3137,
  "his friends ": 2686,
  "his mom": 3136,
  "his mom ": 1499,
  "ho": 667,
  "hold": 2546,
  "hole": 2455,
  "hom": 691,
  "home": 2033,
  "home ": 1868,
  "home and ": 2925,
  "home, ": 2197,
  "hone": 3618,
  "hop": 1399,
  "hopp": 2576,
  "hopped ": 1574,
  "hor": 1830,
  "horse": 3807,
  "horse ": 3452,
  "hot ": 3934,
  "house": 1243,
  "house ": 2228,
  "house and ": 3033,
  "how": 3498,
  "how ": 1063,
  "how to ": 2765,
  "hug": 723,
  "hug ": 3563,
  "hugg": 952,
  "hugged ": 1319,
  "hugged her ": 2743,
  "hugs ": 3562,
  "hun": 1920,
  "hungr": 2168,
  "hur": 1073,
  "hurt": 2002,
  "hurt ": 1836,
  "hy ": 2473,
  "hy are ": 3071,
  "hy are you ": 3307,
  "i": 115,
  "i ": 2991,
  "i, ": 3182,
  "ia ": 2323,
  "ic": 478,
  "ic ": 1613,
  "ice": 1118,
  "ice ": 735,
  "ick": 594,
  "ick ": 2312,
  "icy ": 2261,
  "id": 307,
  "id ": 396,
  "idd": 3351,
  "ide": 2742,
  "idea": 1203,
  "ie": 1695,
  "ie ": 1391,
  "ie was ": 4072,
  "ies": 1741,
  "ies ": 2365,
  "ies and ": 3561,
  "if": 3687,
  "if ": 847,
  "if he could ": 3103,
  "if she could ": 2990,
  "if you ": 2826,
  "ig": 353,
  "igg": 2322,
  "igh": 565,
  "ight": 874,
  "ight ": 1419,
  "ign": 1983,
  "il": 297,
  "il ": 838,
  "ile ": 2989,
  "ill": 740,
  "ill ": 581,
  "illa": 2660,
  "illi": 2764,
  "illy ": 1547,
  "ilt": 3933,
  "ily ": 1009,
  "im": 303,
  "imag": 2574,
  "imagin": 2952,
  "imal": 1014,
  "imal ": 3227,
  "imp": 1184,
  "import": 1405,
  "importan": 1884,
  "important ": 2718,
  "important to ": 2210,
  "in": 279,
  "in ": 536,
  "in a ": 873,
  "in and ": 2032,
  "in her ": 1143,
  "in his ": 1267,
  "in the ": 401,
  "in the air": 3867,
  "in the forest": 2857,
  "in the garden": 1957,
  "in the kitchen": 3740,
  "in the park": 1237,
  "in the park ": 2659,
  "in the sky": 2274,
  "in the sun": 2158,
  "in the water": 3866,
  "in the wood": 3030,
  "in their ": 2717,
  "ind": 802,
  "ind ": 933,
  "ine": 3306,
  "ine ": 1927,
  "ing": 292,
  "ing ": 313,
  "ing a ": 1117,
  "ing and ": 795,
  "ing for ": 4070,
  "ing her ": 1909,
  "ing his ": 2273,
  "ing in the ": 1835,
  "ing on the ": 2856,
  "ing the ": 851,
  "ing to ": 1059,
  "ing, ": 1883,
  "ing. He ": 2389,
  "ing. She ": 2601,
  "ing. The ": 2951,
  "ing. They ": 3451,
  "ink": 1056,
  "ink ": 1261,
  "insid": 829,
  "inside": 2001,
  "inside ": 2573,
  "inside and ": 2855,
  "inside the ": 2311,
  "instea": 3181,
  "int": 1043,
  "inter": 2600,
  "interest": 2854,
  "into ": 2245,
  "into a ": 2988,
  "into the ": 1037,
  "invit": 4071,
  "ion": 1062,
  "ion ": 2858,
  "ious ": 2575,
  "ip": 1918,
  "ip ": 3868,
  "ipp": 2454,
  "ipped ": 3560,
  "ir": 315,
  "ir ": 476,
  "irp": 3806,
  "irre": 1772,
  "irt": 1573,
  "is": 448,
  "is ": 310,
  "is a ": 1208,
  "is not ": 2000,
  "is so ": 3686,
  "is very ": 3559,
  "ise": 1121,
  "ished": 2572,
  "iss": 1563,
  "it": 302,
  "it ": 324,
  "it a ": 3450,
  "it and ": 1099,
  "it is ": 1710,
  "it started to ": 3685,
  "it to ": 1269,
  "it too": 3994,
  "it was": 1498,
  "it was ": 602,
  "it was a ": 1908,
  "it was time to ": 1971,
  "it was time to go hom": 2633,
  "it was too ": 1746,
  "it was very ": 2388,
  "it would be ": 3558,
  "it's ": 1257,
  "it, ": 2060,
  "it, but ": 2798,
  "it. He ": 1796,
  "it. She ": 1867,
  "it. The ": 2111,
  "it. They ": 3267,
  "it?\" ": 2599,
  "itch": 1253,
  "ite": 2411,
  "ite ": 888,
  "ite and ": 2987,
  "its ": 1042,
  "itt": 380,
  "itten": 3305,
  "ittle ": 397,
  "ive ": 2167,
  "iz": 2799,
  "j": 116,
  "ja": 2950,
  "jack": 4069,
  "je": 3135,
  "jeal": 3266,
  "jo": 702,
  "job": 2410,
  "join": 3805,
  "join ": 3029,
  "jok": 3265,
  "jour": 2497,
  "journe": 2741,
  "joy": 1135,
  "ju": 1351,
  "juice ": 3264,
  "jump": 1072,
  "jump ": 2986,
  "jumped ": 1625,
  "jun": 3102,
  "jung": 3350,
  "just": 2571,
  "just ": 951,
  "k": 117,
  "k ": 503,
  "kay": 3684,
  "ke": 676,
  "ke ": 379,
  "ke and ": 2985,
  "keep": 1937,
  "keep ": 1559,
  "kep": 1078,
  "kept ": 1150,
  "ket ": 3739,
  "key ": 3225,
  "kick": 3180,
  "kid": 1531,
  "kids": 3497,
  "kids ": 2658,
  "kind": 1723,
  "kind ": 1266,
  "kind and ": 2472,
  "kis": 3804,
  "kiss": 3226,
  "kitch": 1475,
  "kitchen": 1970,
  "kitchen and ": 4068,
  "kite ": 3068,
  "kitt": 2127,
  "kn": 709,
  "kne": 2570,
  "knew": 2598,
  "knew ": 834,
  "knew that ": 1855,
  "kno": 2521,
  "knock": 3304,
  "know": 1211,
  "know ": 1029,
  "know what ": 1673,
  "l": 118,
  "l ": 326,
  "la": 316,
  "lad": 2520,
  "ladd": 3067,
  "lady ": 1647,
  "lake": 3224,
  "lam": 3683,
  "lan": 1474,
  "land": 2196,
  "land ": 3993,
  "lar": 2431,
  "large ": 3738,
  "late": 3223,
  "later": 3932,
  "laugh": 781,
  "laugh and ": 4067,
  "laughed": 2291,
  "laughed ": 3682,
  "laughed and ": 1284,
  "law": 3616,
  "lay ": 3803,
  "ld": 543,
  "ld ": 357,
  "le": 336,
  "le ": 347,
  "le and ": 1538,
  "le in the ": 3447,
  "lea": 704,
  "lear": 730,
  "learn": 853,
  "learn ": 2140,
  "learned ": 2984,
  "learned a ": 3681,
  "learned that ": 1582,
  "leav": 3179,
  "leaves": 3066,
  "leaves ": 3027,
  "led": 3802,
  "led ": 1338,
  "led and ": 3028,
  "lef": 3615,
  "left": 3349,
  "left ": 3449,
  "left the ": 3992,
  "leg": 3133,
  "lemon": 3400,
  "les": 3348,
  "les ": 2853,
  "less": 1470,
  "less ": 3448,
  "lesson": 2797,
  "lesson ": 3303,
  "let ": 1754,
  "let's ": 1694,
  "li": 334,
  "lic": 3680,
  "lice ": 2740,
  "lick": 3263,
  "lid": 1315,
  "lie": 2221,
  "life": 4066,
  "ligh": 1116,
  "light": 1664,
  "light ": 2569,
  "lik": 614,
  "like ": 557,
  "like a ": 1740,
  "like it": 3446,
  "like the ": 1680,
  "like to ": 1679,
  "like to play ": 2715,
  "like to play with ": 3222,
  "liked ": 2310,
  "liked the ": 2596,
  "liked to ": 797,
  "liked to play ": 1936,
  "likes ": 1816,
  "likes to ": 4065,
  "ling ": 3134,
  "lion": 2632,
  "lion ": 2597,
  "list": 1086,
  "listen": 1368,
  "listen ": 2074,
  "listen to ": 2852,
  "listened to ": 2657,
  "lit ": 2716,
  "little ": 399,
  "little bird ": 2595,
  "little bo": 3496,
  "little boy ": 906,
  "little boy named ": 1348,
  "little girl": 1397,
  "little girl ": 548,
  "little girl called ": 2244,
  "little girl named ": 854,
  "lived ": 1017,
  "lived happily ": 3495,
  "lived happily ever after": 3801,
  "lived in a ": 1809,
  "living ": 2157,
  "living room": 2763,
  "liz": 1426,
  "lk": 620,
  "lk ": 1530,
  "ll": 305,
  "ll ": 420,
  "ll the ": 897,
  "llow": 1221,
  "lly ": 592,
  "lo": 312,
  "lock": 2949,
  "lon": 2453,
  "lonel": 2496,
  "long": 808,
  "long ": 1226,
  "longer ": 2594,
  "look": 425,
  "look ": 1242,
  "look at ": 2272,
  "look at the ": 3065,
  "look for ": 3557,
  "looked ": 544,
  "looked around": 3614,
  "looked around ": 1593,
  "looked around and ": 2047,
  "looked at ": 1418,
  "looked at the ": 2073,
  "looked up": 3445,
  "looked up and ": 3864,
  "looking": 2739,
  "looking ": 1432,
  "looking for ": 2631,
  "looks": 3800,
  "looks ": 1991,
  "lost": 3865,
  "lost ": 2290,
  "lot": 2762,
  "lot of ": 1493,
  "lots of ": 947,
  "lots of fun": 2309,
  "lots of fun ": 3556,
  "loud": 2430,
  "loud ": 1210,
  "loud noise": 2271,
  "lov": 531,
  "love ": 1126,
  "loved ": 1088,
  "loved playing ": 3302,
  "loved the ": 2685,
  "loved to ": 677,
  "loved to play ": 1241,
  "lovely ": 3991,
  "low": 641,
  "low ": 3737,
  "lp": 493,
  "lu": 755,
  "luck": 2714,
  "luff": 2031,
  "lun": 2429,
  "lunch": 3444,
  "ly": 660,
  "ly ": 492,
  "ly and ": 1612,
  "ly, ": 833,
  "m": 119,
  "m ": 469,
  "ma": 365,
  "ma ": 1951,
  "mach": 3613,
  "made ": 608,
  "made a ": 1252,
  "made her ": 2387,
  "made him ": 3862,
  "made it ": 2983,
  "made sur": 3930,
  "made the ": 2568,
  "mag": 2099,
  "magi": 1807,
  "magic ": 3347,
  "magica": 1808,
  "magical ": 1990,
  "mail": 3101,
  "mak": 1162,
  "make ": 601,
  "make a ": 1917,
  "make it ": 3064,
  "make the ": 3494,
  "makes ": 2629,
  "making ": 2139,
  "man": 659,
  "man ": 787,
  "manag": 3929,
  "many ": 920,
  "mar": 1469,
  "mark": 3443,
  "matter ": 3863,
  "maz": 1182,
  "mb": 998,
  "mbar": 3492,
  "mbarra": 3493,
  "me": 593,
  "me ": 954,
  "me, ": 3799,
  "mea": 1735,
  "mead": 2851,
  "meadow": 3798,
  "mean": 1969,
  "mean ": 3398,
  "mean to ": 3178,
  "med": 3026,
  "memb": 1161,
  "mes": 1440,
  "mess": 2321,
  "met": 2656,
  "met a ": 3554,
  "mi": 1425,
  "midd": 3931,
  "might": 3399,
  "might ": 2346,
  "mil": 1982,
  "milk": 3345,
  "min": 1390,
  "mind": 3132,
  "mine": 3177,
  "minut": 2825,
  "mir": 2220,
  "mis": 3131,
  "miss": 2630,
  "mista": 3346,
  "mix": 2519,
  "mm": 4064,
  "mo": 658,
  "mom": 483,
  "mom ": 508,
  "mom and ": 1285,
  "mom and dad": 3062,
  "mom and dad ": 2796,
  "moment": 1935,
  "mommy": 2181,
  "mommy ": 1022,
  "mon": 1323,
  "mone": 2452,
  "monster": 3553,
  "monster ": 2795,
  "mor": 573,
  "moral ": 2518,
  "moral of the story ": 2850,
  "moral of the story is ": 3221,
  "more": 1672,
  "more ": 840,
  "morning": 2289,
  "morning ": 3552,
  "morning, ": 4063,
  "most ": 1815,
  "mother ": 2982,
  "mou": 2738,
  "mouse": 3130,
  "mouse ": 1624,
  "mouth": 3990,
  "mov": 2409,
  "move": 2495,
  "move ": 2888,
  "moved ": 3063,
  "mu": 621,
  "much": 1517,
  "much ": 943,
  "mum": 1950,
  "mum ": 1916,
  "mus": 2243,
  "music": 3397,
  "must ": 2545,
  "my": 646,
  "my ": 418,
  "my and ": 1286,
  "my and da": 3551,
  "my ask": 3555,
  "my's ": 3344,
  "my, ": 1417,
  "myster": 2887,
  "mysterious ": 3928,
  "n": 120,
  "n ": 724,
  "n't": 3491,
  "n't ": 517,
  "na": 699,
  "na ": 1109,
  "nam": 504,
  "name": 3262,
  "name is ": 4062,
  "name was ": 2948,
  "named ": 550,
  "nap": 2408,
  "naught": 2517,
  "nd": 511,
  "nd ": 275,
  "nd and ": 2242,
  "ne": 369,
  "near": 1251,
  "near the ": 2219,
  "nearby ": 3735,
  "neck": 3100,
  "need": 1355,
  "need ": 3129,
  "need to ": 1753,
  "needed to ": 3927,
  "neigh": 2166,
  "neighb": 3261,
  "neighbor": 3611,
  "ner": 1709,
  "net": 3612,
  "never ": 832,
  "never seen": 3442,
  "new": 1234,
  "new ": 552,
  "new friend": 3099,
  "new friend ": 3797,
  "nex": 1140,
  "next ": 1233,
  "ng": 3220,
  "ng ": 2270,
  "nic": 1907,
  "nice": 2030,
  "nice ": 1175,
  "nice and ": 3219,
  "night": 1592,
  "night ": 3736,
  "night, ": 3343,
  "ning": 1314,
  "ning ": 1646,
  "ning and ": 3679,
  "no": 366,
  "no ": 1130,
  "no longer ": 2655,
  "no one ": 3098,
  "nod": 3176,
  "nodd": 1112,
  "nodded and ": 1854,
  "nois": 1806,
  "noise": 1232,
  "noise ": 3217,
  "noise and ": 3796,
  "not": 821,
  "not ": 459,
  "not a ": 3342,
  "not to ": 2407,
  "nother ": 2386,
  "nothing ": 3218,
  "notic": 1173,
  "noticed ": 3795,
  "noticed a ": 2493,
  "noticed something ": 3128,
  "noticed that ": 3396,
  "now": 1115,
  "now ": 1663,
  "numb": 2981,
  "nut": 3550,
  "ny": 2494,
  "ny ": 880,
  "n\u00c3\u00a2\u00e2\u0082\u00acTMt ": 3678,
  "o": 121,
  "o ": 277,
  "o, ": 721,
  "ob": 3610,
  "obe": 3549,
  "oc": 3097,
  "oce": 3096,
  "ocean": 3548,
  "of": 342,
  "of ": 435,
  "of a ": 1722,
  "of her ": 2110,
  "of his ": 2209,
  "of the ": 568,
  "of the story ": 2824,
  "of them ": 2516,
  "off": 1142,
  "off ": 1461,
  "off the ": 2737,
  "off to ": 3926,
  "ok": 350,
  "oka": 3301,
  "okay": 2451,
  "okay, ": 3441,
  "oke ": 1770,
  "ol": 1487,
  "ola": 3794,
  "old": 1795,
  "old ": 707,
  "old and ": 1762,
  "old man": 2947,
  "old man ": 1853,
  "oll": 1771,
  "olly ": 1360,
  "om": 289,
  "om ": 374,
  "ome": 2406,
  "ome ": 1769,
  "on": 288,
  "on ": 535,
  "on a ": 430,
  "on an": 2567,
  "on an adventure": 3440,
  "on and ": 1989,
  "on her ": 1342,
  "on her face": 4060,
  "on his ": 1330,
  "on his face": 3676,
  "on it": 2405,
  "on the ": 549,
  "on the floor": 2428,
  "on the ground": 1878,
  "on their ": 2924,
  "on't ": 733,
  "on, ": 882,
  "on, she ": 3734,
  "on, the ": 1934,
  "ond": 2126,
  "one": 751,
  "one ": 530,
  "one and ": 2823,
  "one da": 1497,
  "one day ": 2946,
  "one day, ": 2628,
  "one of the ": 3175,
  "one, ": 3925,
  "ones": 3677,
  "ong": 563,
  "only ": 1546,
  "onto the ": 3395,
  "oo": 577,
  "ood": 1383,
  "ood ": 1721,
  "ook": 1114,
  "op": 490,
  "op ": 3260,
  "open": 942,
  "open ": 2684,
  "open the ": 3675,
  "opened the ": 1693,
  "oph": 3341,
  "or": 296,
  "or ": 895,
  "oran": 1708,
  "orange ": 2385,
  "org": 3394,
  "organ": 3439,
  "organiz": 3609,
  "orr": 766,
  "orrow": 3127,
  "ort": 1207,
  "osaur": 4061,
  "other": 860,
  "other ": 841,
  "other animal": 3674,
  "ou": 283,
  "oud": 1178,
  "oud ": 686,
  "ough": 519,
  "ough ": 4059,
  "ought ": 1761,
  "ould": 2125,
  "ould ": 405,
  "ouldn't ": 2794,
  "oun": 1416,
  "ound": 655,
  "ound ": 433,
  "ounta": 2180,
  "ountain": 3095,
  "oup ": 2761,
  "our": 955,
  "our ": 1305,
  "ous": 926,
  "ous ": 1055,
  "ous and ": 2072,
  "ous, ": 3989,
  "ouse": 981,
  "ouse ": 1105,
  "ouse and ": 2492,
  "out": 525,
  "out ": 491,
  "out a ": 2654,
  "out and ": 2471,
  "out of ": 2923,
  "out of the ": 1329,
  "out the ": 2156,
  "out to ": 3673,
  "outsid": 746,
  "outside": 2165,
  "outside ": 1572,
  "outside and ": 1785,
  "outside to ": 2713,
  "over": 1511,
  "over ": 978,
  "over and ": 3126,
  "over the ": 1981,
  "over to ": 2364,
  "over to the ": 3025,
  "ow": 330,
  "ow ": 487,
  "ow, ": 1322,
  "owl ": 3061,
  "own": 556,
  "own ": 1486,
  "owner ": 3988,
  "p": 122,
  "p ": 820,
  "p and ": 3094,
  "pa": 584,
  "pa ": 4058,
  "pack": 2179,
  "pain": 1866,
  "paint": 2046,
  "pan": 3861,
  "pap": 3437,
  "paper": 2922,
  "par": 532,
  "parent": 1424,
  "parents ": 2164,
  "park": 750,
  "park ": 1193,
  "part": 1949,
  "pass": 2711,
  "past": 4057,
  "pat": 3259,
  "path": 3607,
  "pati": 2712,
  "paw": 3924,
  "pe": 672,
  "pe ": 1834,
  "pea": 2515,
  "peace": 3124,
  "pean": 3733,
  "pear": 3608,
  "pec": 3438,
  "peek": 4056,
  "pen": 1529,
  "pensi": 3987,
  "peop": 1110,
  "people": 2945,
  "people ": 1268,
  "per": 905,
  "perfe": 1730,
  "perfect": 3258,
  "perfect ": 2288,
  "pers": 3123,
  "person ": 3860,
  "pet": 2427,
  "pet ": 2490,
  "ph": 2208,
  "phan": 3125,
  "pi": 965,
  "pic": 1139,
  "pick": 1001,
  "pick ": 1968,
  "picked ": 1636,
  "picked it ": 2514,
  "picked it up and ": 3547,
  "picked up the ": 2593,
  "picture": 1760,
  "picture ": 2627,
  "pie": 3436,
  "piec": 2071,
  "piece ": 3671,
  "pieces ": 3670,
  "pig": 3024,
  "pil": 2086,
  "pile ": 3923,
  "pill": 3672,
  "pink ": 2653,
  "pizz": 3490,
  "pl": 654,
  "pla": 356,
  "plac": 3173,
  "place": 2124,
  "place ": 1635,
  "place to ": 3858,
  "plain": 2241,
  "plan": 1216,
  "plant": 3793,
  "play": 468,
  "play ": 481,
  "play a ": 3393,
  "play and ": 3859,
  "play with ": 869,
  "play with his ": 3669,
  "play with it": 3392,
  "play with the ": 2098,
  "played ": 939,
  "played together": 3668,
  "played together ": 2886,
  "played with the ": 3340,
  "playing": 2115,
  "playing ": 720,
  "playing and ": 3546,
  "ple": 3174,
  "ple ": 2363,
  "plea": 1558,
  "please": 2426,
  "pli": 1236,
  "plor": 856,
  "po": 624,
  "pock": 2513,
  "poin": 2921,
  "point": 3216,
  "pol": 3667,
  "pond": 2544,
  "pond ": 3545,
  "poo": 3093,
  "pool": 3922,
  "pot ": 2345,
  "pow": 2491,
  "pp": 339,
  "ppear": 1877,
  "pped ": 715,
  "ppo": 3792,
  "pr": 619,
  "pra": 2029,
  "pract": 2736,
  "practic": 3791,
  "pre": 719,
  "pres": 2308,
  "present": 3921,
  "press": 3606,
  "pret": 1600,
  "pretend": 2592,
  "pretend ": 2404,
  "prett": 1107,
  "pretty": 3215,
  "pretty ": 1662,
  "pri": 950,
  "prin": 1611,
  "princes": 2218,
  "princess ": 3489,
  "pro": 1692,
  "proble": 3544,
  "problem": 3666,
  "prom": 1720,
  "promis": 1893,
  "promised to ": 3605,
  "protec": 3543,
  "proud": 2260,
  "proud ": 918,
  "proud of": 1334,
  "proud of ": 1967,
  "proud of her": 3604,
  "pu": 769,
  "pudd": 3300,
  "pull": 1562,
  "pulled ": 3339,
  "pupp": 1745,
  "puppy ": 2591,
  "pur": 1752,
  "purple ": 2710,
  "push": 2403,
  "put": 1852,
  "put ": 656,
  "put a ": 4055,
  "put her ": 3732,
  "put it ": 1656,
  "put on her ": 3435,
  "put the ": 1444,
  "put them ": 3022,
  "puzz": 3023,
  "q": 123,
  "qu": 622,
  "que": 3060,
  "quest": 3214,
  "question": 3986,
  "qui": 1784,
  "quick": 1202,
  "quickly ": 1404,
  "quiet": 2626,
  "r": 124,
  "r ": 626,
  "ra": 377,
  "rabb": 1068,
  "rabbit": 3731,
  "rabbit ": 1403,
  "rac": 2980,
  "race": 2885,
  "race ": 2652,
  "rain": 1591,
  "rain ": 3213,
  "ran": 630,
  "ran ": 714,
  "ran away": 2425,
  "ran to ": 2287,
  "ran to the ": 1623,
  "rank ": 4054,
  "re": 306,
  "re ": 1387,
  "rea": 500,
  "reach": 1260,
  "reached ": 2206,
  "reached the ": 2683,
  "read": 1851,
  "read ": 1719,
  "ready ": 1504,
  "ready to ": 2384,
  "real ": 3664,
  "realiz": 1605,
  "realized ": 3338,
  "realized that ": 2735,
  "really ": 1380,
  "recor": 3488,
  "red": 1707,
  "red ": 1181,
  "red and ": 3665,
  "rela": 4053,
  "reli": 1926,
  "reliev": 3021,
  "rememb": 1188,
  "remember": 1453,
  "remember ": 2512,
  "remembered ": 3603,
  "repe": 4052,
  "repli": 1265,
  "replied, \"": 1718,
  "respec": 3059,
  "rest": 2920,
  "rest ": 2919,
  "return": 3542,
  "ri": 327,
  "rid": 1734,
  "ride ": 3092,
  "righ": 879,
  "right": 2070,
  "right ": 2217,
  "ring": 3391,
  "river": 2760,
  "ro": 403,
  "roar": 3919,
  "robo": 3257,
  "rock": 1278,
  "rock ": 2944,
  "roll": 2163,
  "rom ": 877,
  "room": 796,
  "room ": 1906,
  "room and ": 2028,
  "room. She ": 3256,
  "round ": 3920,
  "ru": 1027,
  "rubb": 2470,
  "ruin": 3541,
  "run": 783,
  "run ": 2109,
  "run and ": 3337,
  "running": 2286,
  "running ": 2759,
  "ry": 956,
  "ry ": 1220,
  "ry, ": 2207,
  "s": 125,
  "s ": 272,
  "s a ": 935,
  "s and ": 439,
  "s and the ": 2205,
  "s are ": 2884,
  "s his ": 4049,
  "s in the ": 1522,
  "s it ": 3298,
  "s of ": 2258,
  "s on the ": 2849,
  "s that ": 3662,
  "s the ": 904,
  "s to ": 1492,
  "s to the ": 3172,
  "s were ": 1283,
  "s with ": 3089,
  "s, ": 850,
  "s, and ": 1865,
  "s, but ": 3091,
  "s.": 1999,
  "s. ": 2758,
  "s. \"": 1759,
  "s. He ": 1104,
  "s. Lily ": 4051,
  "s. One day, ": 1240,
  "s. One day, they ": 3789,
  "s. She ": 1077,
  "s. The ": 1571,
  "s. They ": 892,
  "s. They are ": 4050,
  "s. They were ": 3984,
  "s.\" ": 3255,
  "sa": 294,
  "sack": 3857,
  "sack ": 3918,
  "sad": 894,
  "sad ": 1337,
  "sad and ": 1290,
  "saf": 1537,
  "safe": 1645,
  "safe ": 2881,
  "safe and ": 2542,
  "said": 370,
  "said ": 466,
  "said \"": 1716,
  "said goodby": 1876,
  "said goodbye to the ": 3983,
  "said it was ": 3788,
  "said no": 2624,
  "said to ": 2240,
  "said y": 2068,
  "said yes": 3538,
  "said yes and ": 3730,
  "said, ": 1046,
  "said, \"": 423,
  "said, \"H": 2793,
  "said, \"I ": 1521,
  "said, \"Let's ": 2216,
  "said, \"No, ": 2822,
  "said, \"W": 1733,
  "said, \"Yes, ": 2162,
  "said, \u00c3\u00a2\u00e2\u0082\u00ac\u00c5\u0093": 1449,
  "said. \"": 1016,
  "said. He ": 3540,
  "said. They ": 3539,
  "said: \"": 2979,
  "sail": 1706,
  "same ": 2362,
  "sand": 1717,
  "sandwi": 2918,
  "sat ": 1793,
  "saur": 4048,
  "saw": 482,
  "saw ": 692,
  "saw a ": 590,
  "saw a big ": 1214,
  "saw a big, ": 3253,
  "saw an ": 3856,
  "saw her ": 2821,
  "saw his ": 3729,
  "saw many ": 3787,
  "saw something ": 1948,
  "saw that ": 2138,
  "saw that the ": 3485,
  "saw the ": 1023,
  "say": 1481,
  "say ": 1415,
  "say, \"": 2848,
  "says": 664,
  "says ": 2155,
  "says, ": 3433,
  "says, \"": 1225,
  "says. \"": 1369,
  "says. He ": 3171,
  "says. She ": 3210,
  "says. They ": 3601,
  "sc": 2045,
  "sca": 3212,
  "scar": 639,
  "scared": 1064,
  "scared ": 1655,
  "scared and ": 1590,
  "scary ": 3917,
  "schoo": 2259,
  "school": 2564,
  "scre": 3434,
  "scream": 2566,
  "se": 345,
  "se ": 576,
  "se and ": 3254,
  "se, ": 2044,
  "sea": 2307,
  "sear": 1691,
  "search": 2085,
  "searched ": 4047,
  "secre": 2195,
  "secret ": 3170,
  "sed": 1516,
  "sed ": 2682,
  "see": 2204,
  "see ": 612,
  "see a ": 3484,
  "see a big ": 3982,
  "see the ": 1768,
  "see what ": 3121,
  "seek": 3600,
  "seem": 2194,
  "seemed ": 3786,
  "seen": 1947,
  "seen ": 2361,
  "sees ": 2059,
  "sees the ": 3981,
  "sel": 859,
  "self": 1201,
  "self ": 1864,
  "ser": 2069,
  "set": 2239,
  "set ": 2137,
  "sh": 349,
  "sh ": 868,
  "sha": 1168,
  "sham": 3785,
  "shap": 2154,
  "shar": 839,
  "share ": 1634,
  "share the ": 3537,
  "she": 1293,
  "she ": 338,
  "she could ": 1187,
  "she had ": 1058,
  "she wanted to ": 2203,
  "she was ": 938,
  "she would ": 2178,
  "shed ": 1085,
  "shel": 2943,
  "shin": 870,
  "shiny ": 1473,
  "shiny and ": 2880,
  "ship": 4046,
  "sho": 1570,
  "shook": 3088,
  "shop": 2489,
  "shor": 3020,
  "should ": 1198,
  "should not ": 3536,
  "shout": 1250,
  "shouted ": 3336,
  "shouted, \"": 3252,
  "show": 959,
  "show ": 1758,
  "showed ": 2269,
  "showed her ": 3169,
  "shr": 2978,
  "si": 990,
  "sick": 3299,
  "sid": 524,
  "side ": 2917,
  "side of the ": 3855,
  "sig": 3122,
  "sign": 3663,
  "sign ": 3728,
  "sil": 2565,
  "silly ": 3602,
  "sing": 1783,
  "sing ": 2883,
  "sist": 3087,
  "sister": 3086,
  "sister ": 3661,
  "sit": 3487,
  "sit ": 2681,
  "sitt": 2625,
  "sitting ": 3599,
  "sk": 424,
  "sky": 1367,
  "sky ": 2916,
  "sky and ": 2820,
  "sle": 1197,
  "sleep": 1456,
  "sleep ": 3019,
  "sli": 2424,
  "slid": 1452,
  "slide": 3980,
  "slow": 1622,
  "slowly ": 2402,
  "sm": 421,
  "sma": 828,
  "small": 1431,
  "small ": 1084,
  "small and ": 3535,
  "smar": 2227,
  "sme": 2709,
  "smell": 1892,
  "smil": 457,
  "smile": 3056,
  "smile ": 2026,
  "smile and ": 3727,
  "smiled": 984,
  "smiled ": 1561,
  "smiled and ": 638,
  "smiled and said, \"": 997,
  "smiled and said, \"Yes, ": 3916,
  "smiled at ": 3335,
  "smiled, ": 3432,
  "smiled. \"": 3018,
  "smiles and ": 3534,
  "smiling": 3784,
  "smoo": 2541,
  "sn": 2543,
  "sna": 1794,
  "snack": 2792,
  "sne": 3090,
  "sneez": 3726,
  "snow": 3058,
  "so": 728,
  "so ": 362,
  "so he ": 2108,
  "so much": 3782,
  "so much ": 1437,
  "so much fun": 2590,
  "so much fun ": 2510,
  "so she ": 2344,
  "soa": 3783,
  "sof": 1443,
  "soft": 3251,
  "soft ": 2469,
  "sol": 2977,
  "som": 422,
  "some": 523,
  "some ": 605,
  "someone ": 1925,
  "something": 2043,
  "something ": 599,
  "something new": 3915,
  "something special": 2942,
  "something special ": 4045,
  "sometimes ": 2651,
  "song": 1905,
  "soon": 1829,
  "soon ": 1589,
  "sor": 3057,
  "sorr": 871,
  "sorry": 2976,
  "sorry ": 1599,
  "sorry and ": 3725,
  "sorry, ": 2084,
  "sound": 1554,
  "sound ": 2734,
  "sounds ": 3914,
  "sp": 456,
  "spa": 2819,
  "spark": 1956,
  "spe": 3533,
  "spec": 696,
  "speci": 732,
  "special": 1496,
  "special ": 885,
  "spent ": 3297,
  "spicy ": 3660,
  "spid": 3431,
  "spin": 3390,
  "spla": 1904,
  "splash": 3168,
  "spo": 1206,
  "spoon": 4044,
  "spot": 4043,
  "spot ": 3781,
  "spott": 2847,
  "spread ": 3913,
  "squ": 1215,
  "squirre": 1833,
  "squirrel": 2941,
  "squirrel ": 2757,
  "ss": 665,
  "ss ": 1177,
  "ss and ": 1903,
  "ss the ": 2882,
  "st": 304,
  "st ": 606,
  "st and ": 2488,
  "st the ": 3985,
  "sta": 794,
  "stand": 3430,
  "star": 527,
  "start": 3724,
  "started ": 1256,
  "started to ": 649,
  "started to cry": 2487,
  "stay": 1828,
  "stay ": 1495,
  "stayed ": 2238,
  "ste": 1576,
  "stea": 2401,
  "stepped ": 1839,
  "ster": 1372,
  "ster ": 1782,
  "stick": 1690,
  "stick ": 3296,
  "still": 3017,
  "still ": 1120,
  "stir": 3598,
  "sto": 1071,
  "stood ": 3429,
  "stop": 1536,
  "stop ": 2423,
  "stopp": 1661,
  "stopped ": 1781,
  "stopped and ": 2622,
  "stor": 789,
  "store ": 3334,
  "story ": 2153,
  "str": 916,
  "stra": 2623,
  "stran": 1503,
  "strange": 3723,
  "strange ": 2285,
  "stre": 1557,
  "stream": 3979,
  "street": 3483,
  "strong": 1183,
  "strong ": 3016,
  "strong and ": 3482,
  "stu": 1379,
  "stuck ": 3597,
  "su": 1298,
  "suc": 3790,
  "such a ": 2383,
  "sudden": 2027,
  "suddenly ": 2915,
  "sug": 3211,
  "sun": 762,
  "sun ": 1277,
  "sun was ": 2708,
  "sun was shin": 3532,
  "sunny ": 3295,
  "sur": 701,
  "sure": 2511,
  "sure ": 1402,
  "surpri": 1008,
  "surpris": 2058,
  "surprise": 2215,
  "surprise ": 2400,
  "surprised": 3294,
  "sw": 717,
  "swa": 2450,
  "swam ": 3854,
  "swe": 1301,
  "sweet": 2306,
  "sweet ": 3055,
  "swer": 2422,
  "swim": 1767,
  "swim ": 3780,
  "swimm": 3209,
  "swing": 2015,
  "sy ": 3486,
  "t": 126,
  "t ": 271,
  "t a ": 1018,
  "t and ": 805,
  "t and the ": 3912,
  "t of ": 1300,
  "t the ": 586,
  "t to ": 578,
  "t's ": 703,
  "ta": 427,
  "table": 1689,
  "table ": 2468,
  "tail": 2136,
  "tain": 3978,
  "tak": 1502,
  "take ": 711,
  "take a ": 1378,
  "take care ": 3387,
  "take it ": 3120,
  "take the ": 2791,
  "takes ": 3332,
  "taking ": 3596,
  "tal": 3428,
  "talk": 1780,
  "talk ": 3054,
  "tall": 2733,
  "tall ": 2257,
  "tast": 1423,
  "tasty ": 3977,
  "tch": 2360,
  "te": 912,
  "te ": 1715,
  "tea": 1468,
  "teach": 1805,
  "teacher ": 2621,
  "tear": 3389,
  "tec": 3531,
  "ted": 2161,
  "ted ": 773,
  "ted to ": 414,
  "teddy ": 3015,
  "tell": 1604,
  "tell ": 2845,
  "ter": 1485,
  "th": 268,
  "th ": 779,
  "th and ": 2042,
  "than": 716,
  "than ": 1998,
  "thank": 807,
  "thank ": 2449,
  "thank you": 3779,
  "thanked ": 1491,
  "thanked her ": 3292,
  "thanked the ": 1422,
  "that": 1092,
  "that ": 375,
  "that day ": 1103,
  "that he ": 1354,
  "that it ": 2879,
  "that it was ": 4042,
  "that she ": 1359,
  "that she had ": 3659,
  "that the ": 1289,
  "that they ": 2914,
  "that was ": 2540,
  "that's ": 3331,
  "the": 314,
  "the ": 278,
  "the best ": 1528,
  "the best of ": 3658,
  "the bird ": 3778,
  "the most ": 3852,
  "their": 2539,
  "their ": 499,
  "their mom": 3330,
  "their mom ": 3976,
  "them": 610,
  "them ": 651,
  "them a ": 3386,
  "them and ": 1891,
  "them to ": 3014,
  "them. They ": 3329,
  "then": 1067,
  "then ": 727,
  "then he ": 3911,
  "then she ": 4041,
  "ther": 467,
  "ther ": 579,
  "ther, they ": 3777,
  "there": 1945,
  "there ": 413,
  "there lived ": 2707,
  "there lived a ": 2940,
  "there was ": 3657,
  "there was a ": 449,
  "there was an ": 3481,
  "there were ": 1678,
  "there were two ": 2025,
  "there, ": 3595,
  "these ": 3853,
  "they": 3119,
  "they ": 390,
  "they all ": 2057,
  "they are ": 2122,
  "they both ": 3427,
  "they could ": 1827,
  "they got ": 2305,
  "they had ": 1460,
  "they were ": 996,
  "they would ": 2304,
  "thing": 572,
  "thing ": 529,
  "things": 1439,
  "things ": 923,
  "things and ": 3426,
  "think": 1705,
  "think ": 1966,
  "thinks ": 2790,
  "this": 2135,
  "this ": 924,
  "this is ": 3851,
  "though": 662,
  "though ": 3118,
  "thought": 1814,
  "thought ": 884,
  "thought about ": 3053,
  "thought for a moment": 2975,
  "thought it was ": 3165,
  "thought the ": 3385,
  "thr": 1138,
  "thre": 1041,
  "three ": 1318,
  "three year": 1467,
  "three years ": 1688,
  "three years old": 3052,
  "three years old and ": 2382,
  "threw ": 4040,
  "through": 1377,
  "through the ": 1581,
  "throw": 3656,
  "ti": 1273,
  "tid": 3167,
  "tight": 2123,
  "tim": 392,
  "time": 1621,
  "time ": 1134,
  "time for ": 3594,
  "time to ": 1527,
  "time, ": 3051,
  "times ": 1826,
  "tin": 1313,
  "ting ": 3388,
  "tinu": 1792,
  "tiny ": 2756,
  "tion": 3293,
  "tir": 1946,
  "tired": 2237,
  "tired ": 3776,
  "tired and ": 3593,
  "to": 322,
  "to ": 284,
  "to a ": 1101,
  "to always ": 2878,
  "to ask": 3530,
  "to be ": 948,
  "to do": 1588,
  "to do ": 3722,
  "to eat": 3655,
  "to find ": 2706,
  "to have ": 1779,
  "to help": 1863,
  "to help ": 3775,
  "to her ": 1131,
  "to her mom": 3085,
  "to his ": 1292,
  "to make ": 1347,
  "to play ": 1191,
  "to play with": 2913,
  "to see ": 1414,
  "to the ": 415,
  "to the park": 2732,
  "today": 3425,
  "toge": 587,
  "together": 661,
  "together ": 1189,
  "together and ": 1890,
  "together.": 2486,
  "together. They ": 3012,
  "told ": 842,
  "told her ": 1757,
  "told him ": 2121,
  "tom": 3333,
  "tomorrow": 3975,
  "too": 768,
  "too ": 722,
  "too, ": 3013,
  "took": 712,
  "took ": 1192,
  "took a ": 2120,
  "took her ": 3050,
  "took it ": 3384,
  "took the ": 1654,
  "top": 2014,
  "top ": 1875,
  "top of the ": 2818,
  "tor": 2846,
  "tou": 1282,
  "touch": 1660,
  "touch ": 2680,
  "touch the ": 3654,
  "tow": 1376,
  "toward": 2107,
  "towards ": 2974,
  "towards the ": 3974,
  "town": 2538,
  "toy": 864,
  "toy ": 1011,
  "toy car": 2817,
  "toys": 1133,
  "toys ": 1838,
  "toys and ": 1575,
  "tr": 597,
  "tra": 1124,
  "train": 3721,
  "train ": 3208,
  "tre": 604,
  "trea": 2320,
  "treasure": 3207,
  "treat": 2939,
  "tree": 1644,
  "tree ": 1448,
  "tree and ": 1924,
  "tree. The ": 3424,
  "trees": 3383,
  "trees and ": 3529,
  "tri": 754,
  "tried ": 4039,
  "tried to ": 1076,
  "trou": 2650,
  "trouble": 3382,
  "tru": 991,
  "truck": 1552,
  "truck ": 1933,
  "try": 1639,
  "try ": 1366,
  "try to ": 3528,
  "trying to ": 2563,
  "ts ": 674,
  "ts of ": 910,
  "tt": 484,
  "tter": 809,
  "tter ": 1291,
  "tter and ": 3291,
  "tting ": 1598,
  "tun": 2359,
  "tur": 867,
  "ture": 1553,
  "ture ": 2303,
  "turn": 1157,
  "turned ": 2620,
  "tw": 804,
  "twi": 3166,
  "twin": 2649,
  "two ": 993,
  "two friends ": 2938,
  "u": 127,
  "uc": 801,
  "uck": 2284,
  "udd": 670,
  "udden": 710,
  "ug": 502,
  "ugg": 2679,
  "ugh": 645,
  "ughed": 2283,
  "ught": 2024,
  "ught ": 2358,
  "ugly ": 3850,
  "ul": 3164,
  "uli": 3480,
  "um": 538,
  "um ": 2877,
  "umb": 1714,
  "ummy ": 1413,
  "ump": 936,
  "ump ": 2789,
  "un": 351,
  "un ": 3849,
  "under": 1304,
  "under ": 1659,
  "under the ": 2041,
  "underst": 1501,
  "understand": 2876,
  "understand ": 2731,
  "uni": 3011,
  "unt": 846,
  "until": 2421,
  "until ": 992,
  "until he ": 3163,
  "until it ": 3848,
  "until she ": 3381,
  "until the ": 2705,
  "unusu": 3774,
  "up": 361,
  "up ": 745,
  "up a ": 3773,
  "up and ": 970,
  "up and down": 4038,
  "up the ": 1218,
  "up to ": 2973,
  "up to the ": 2562,
  "upon a ": 458,
  "upon a tim": 460,
  "upset": 3973,
  "ur": 419,
  "ure": 718,
  "ure ": 1653,
  "us": 454,
  "us ": 2648,
  "use": 3653,
  "use ": 767,
  "use the ": 3250,
  "ust ": 743,
  "usu": 3423,
  "ut": 589,
  "ut ": 354,
  "uti": 903,
  "v": 128,
  "va": 2467,
  "val": 3290,
  "valu": 3652,
  "ve": 763,
  "ve ": 367,
  "ve and ": 3478,
  "ve the ": 2343,
  "ve, ": 3527,
  "ved": 3479,
  "ved ": 694,
  "vel": 3289,
  "ven": 3249,
  "ven ": 2678,
  "vent": 932,
  "ventu": 4037,
  "venture": 3248,
  "ver": 335,
  "ver ": 545,
  "very": 618,
  "very ": 378,
  "very much": 2256,
  "veryone ": 3380,
  "ves": 1889,
  "ves ": 1506,
  "villa": 3010,
  "ving ": 1034,
  "vis": 1610,
  "visit": 3287,
  "visit ": 2448,
  "vit": 3288,
  "vo": 1100,
  "voice": 2420,
  "voice ": 1791,
  "w": 129,
  "w ": 412,
  "w the ": 3651,
  "wa": 280,
  "wag": 3162,
  "wait": 1346,
  "wait ": 3328,
  "wait to ": 2134,
  "waited ": 2589,
  "walk": 669,
  "walk ": 2067,
  "walked ": 1365,
  "walking": 2647,
  "walking ": 1480,
  "wall": 2013,
  "wan": 394,
  "wander": 4035,
  "want": 1633,
  "want ": 2097,
  "want to ": 708,
  "wanted ": 1677,
  "wanted the ": 4034,
  "wanted to ": 486,
  "wanted to be ": 3846,
  "wanted to go ": 3083,
  "wanted to help": 2842,
  "wants ": 2193,
  "wants to ": 2911,
  "war": 836,
  "ward": 1569,
  "warm": 1874,
  "warm ": 2192,
  "warm and ": 3526,
  "was": 363,
  "was ": 298,
  "was a": 2012,
  "was a ": 391,
  "was a very ": 3718,
  "was able to ": 3476,
  "was always ": 1862,
  "was amaz": 2399,
  "was an ": 2342,
  "was happy ": 1632,
  "was happy and ": 3378,
  "was not ": 2152,
  "was playing ": 2788,
  "was sad": 2841,
  "was sad ": 3525,
  "was scared and ": 3161,
  "was so ": 470,
  "was so excit": 922,
  "was so excited": 1915,
  "was so excited and ": 3286,
  "was so excited to ": 2267,
  "was so happy": 1676,
  "was so happy ": 1149,
  "was so happy and ": 1703,
  "was so proud of": 2618,
  "was the ": 3117,
  "was too ": 2619,
  "was very ": 537,
  "was very happy": 2704,
  "was very happy ": 3844,
  "was very happy and ": 3082,
  "was walking ": 3845,
  "wash": 2912,
  "wasn't ": 2381,
  "wat": 588,
  "watch": 972,
  "watch ": 2446,
  "watch the ": 3843,
  "watched ": 2816,
  "watched the ": 2910,
  "watching ": 4033,
  "water": 1231,
  "water ": 1430,
  "water and ": 1988,
  "wav": 2843,
  "wave ": 3772,
  "waved ": 1704,
  "waved goodby": 2445,
  "way": 540,
  "way ": 758,
  "way to ": 3247,
  "way, ": 3009,
  "ways ": 737,
  "we": 1113,
  "we ": 695,
  "we are ": 4032,
  "we can ": 1594,
  "wea": 2485,
  "wear": 1756,
  "wear ": 3650,
  "weet": 2319,
  "wel": 1932,
  "welcom": 2398,
  "well": 3084,
  "went": 2023,
  "went ": 498,
  "went back to ": 3246,
  "went back to the ": 3285,
  "went for a ": 2840,
  "went outside to ": 3649,
  "went to ": 1465,
  "went to the ": 1000,
  "went to the park": 3717,
  "went to the park ": 2646,
  "were ": 436,
  "were playing ": 2151,
  "were so ": 2755,
  "were very ": 2255,
  "wet": 3477,
  "wh": 387,
  "wha": 3379,
  "what ": 607,
  "what to do": 3842,
  "what was ": 1804,
  "what was wrong": 3771,
  "whe": 2972,
  "when": 1790,
  "when ": 663,
  "when he ": 1608,
  "when she ": 1526,
  "when the ": 2875,
  "when they ": 2645,
  "when you ": 3971,
  "whenever ": 4031,
  "wher": 2380,
  "where ": 995,
  "where he ": 3592,
  "where she ": 3970,
  "whi": 2011,
  "which ": 3116,
  "whil": 1154,
  "while ": 1873,
  "whis": 3910,
  "whist": 3475,
  "white ": 1987,
  "who": 2318,
  "who ": 652,
  "who liked to ": 3048,
  "who lived ": 3716,
  "who lived in a ": 3715,
  "who loved to ": 2644,
  "who was ": 2379,
  "whole ": 3049,
  "why ": 1580,
  "wi": 328,
  "wid": 3206,
  "wil": 2561,
  "wild ": 3245,
  "will": 3720,
  "will ": 785,
  "will be ": 2560,
  "wind": 1466,
  "wind ": 1803,
  "window": 1882,
  "wing": 2447,
  "wip": 3969,
  "wise ": 3160,
  "wish ": 3159,
  "wished ": 1643,
  "with": 343,
  "with ": 455,
  "with a ": 844,
  "with a big ": 2419,
  "with her": 2537,
  "with her ": 742,
  "with her friends": 2466,
  "with her mom": 3523,
  "with her toys": 3770,
  "with him": 2302,
  "with his ": 800,
  "with his friends": 2191,
  "with it": 3327,
  "with lots of ": 2787,
  "with many ": 4030,
  "with me": 3968,
  "with the ": 747,
  "with their ": 1597,
  "without ": 3524,
  "woke ": 2268,
  "wol": 3972,
  "wom": 4036,
  "won": 1081,
  "won't ": 2844,
  "wonder": 1167,
  "wondered ": 2786,
  "wonderful ": 1687,
  "wood": 1609,
  "wor": 562,
  "word": 2177,
  "work": 929,
  "work ": 2909,
  "worked ": 1944,
  "world": 2119,
  "world ": 2066,
  "world around ": 3841,
  "worri": 1955,
  "would ": 570,
  "would always ": 3769,
  "would be ": 1943,
  "wouldn't ": 3205,
  "wr": 1247,
  "wra": 3719,
  "write ": 3840,
  "wro": 3847,
  "wrong": 1658,
  "x": 130,
  "x ": 697,
  "y": 131,
  "y ": 274,
  "y a": 561,
  "y a ": 3326,
  "y again": 2040,
  "y al": 2106,
  "y all ": 1259,
  "y also ": 3767,
  "y always ": 3521,
  "y and ": 398,
  "y and the ": 2465,
  "y are ": 861,
  "y ask": 1310,
  "y at the ": 3591,
  "y the ": 2509,
  "y to ": 2444,
  "y was ": 1408,
  "y!\" ": 2341,
  "y's ": 1652,
  "y,": 3714,
  "y, ": 352,
  "y, \"": 2282,
  "y, a ": 1230,
  "y, but ": 1631,
  "y.": 2874,
  "y. ": 2226,
  "y. \"": 2418,
  "y. He ": 1044,
  "y. It ": 3967,
  "y. One day, ": 3522,
  "y. She ": 1165,
  "y. She was ": 3768,
  "y. The ": 2022,
  "y. They ": 1545,
  "yard": 1980,
  "yard ": 3839,
  "ybe ": 1729,
  "year": 1106,
  "yell": 1255,
  "yellow": 3204,
  "yellow ": 1979,
  "you": 358,
  "you ": 432,
  "you are ": 2301,
  "you can": 3766,
  "you can ": 1484,
  "you have to ": 3648,
  "you to ": 3377,
  "you, ": 1164,
  "young ": 2703,
  "your": 2839,
  "your ": 752,
  "ys": 569,
  "yum": 2484,
  "yummy": 3158,
  "yummy ": 2190,
  "z": 132,
  "ze": 3909,
  "zo": 2873,
  "zoom": 3838,
  "zy ": 2643,
  "zz": 1341,
  "{": 133,
  "|": 134,
  "}": 135,
  "~": 136,
  "\u007f": 137,
  "\u0080": 138,
  "\u0081": 139,
  "\u0082": 140,
  "\u0083": 141,
  "\u0084": 142,
  "\u0085": 143,
  "\u0086": 144,
  "\u0087": 145,
  "\u0088": 146,
  "\u0089": 147,
  "\u008a": 148,
  "\u008b": 149,
  "\u008c": 150,
  "\u008d": 151,
  "\u008e": 152,
  "\u008f": 153,
  "\u0090": 154,
  "\u0091": 155,
  "\u0092": 156,
  "\u0093": 157,
  "\u0094": 158,
  "\u0095": 159,
  "\u0096": 160,
  "\u0097": 161,
  "\u0098": 162,
  "\u0099": 163,
  "\u009a": 164,
  "\u009b": 165,
  "\u009c": 166,
  "\u009d": 167,
  "\u009e": 168,
  "\u009f": 169,
  "\u00a0": 170,
  "\u00a1": 171,
  "\u00a2": 172,
  "\u00a3": 173,
  "\u00a4": 174,
  "\u00a5": 175,
  "\u00a6": 176,
  "\u00a7": 177,
  "\u00a8": 178,
  "\u00a9": 179,
  "\u00aa": 180,
  "\u00ab": 181,
  "\u00ac": 182,
  "\u00ad": 183,
  "\u00ae": 184,
  "\u00af": 185,
  "\u00b0": 186,
  "\u00b1": 187,
  "\u00b2": 188,
  "\u00b3": 189,
  "\u00b4": 190,
  "\u00b5": 191,
  "\u00b6": 192,
  "\u00b7": 193,
  "\u00b8": 194,
  "\u00b9": 195,
  "\u00ba": 196,
  "\u00bb": 197,
  "\u00bc": 198,
  "\u00bd": 199,
  "\u00be": 200,
  "\u00bf": 201,
  "\u00c0": 202,
  "\u00c1": 203,
  "\u00c2": 204,
  "\u00c3": 205,
  "\u00c3\u00a2": 514,
  "\u00c3\u00a2\u00e2\u0082\u00ac": 515,
  "\u00c3\u00a2\u00e2\u0082\u00ac ": 872,
  "\u00c3\u00a2\u00e2\u0082\u00acT": 1012,
  "\u00c3\u00a2\u00e2\u0082\u00acTM": 1013,
  "\u00c3\u00a2\u00e2\u0082\u00acTMs ": 1543,
  "\u00c3\u00a2\u00e2\u0082\u00acTMt ": 2202,
  "\u00c3\u00a2\u00e2\u0082\u00ac\u00c5\u0093": 813,
  "\u00c4": 206,
  "\u00c5": 207,
  "\u00c5\u0093": 812,
  "\u00c6": 208,
  "\u00c7": 209,
  "\u00c8": 210,
  "\u00c9": 211,
  "\u00ca": 212,
  "\u00cb": 213,
  "\u00cc": 214,
  "\u00cd": 215,
  "\u00ce": 216,
  "\u00cf": 217,
  "\u00d0": 218,
  "\u00d1": 219,
  "\u00d2": 220,
  "\u00d3": 221,
  "\u00d4": 222,
  "\u00d5": 223,
  "\u00d6": 224,
  "\u00d7": 225,
  "\u00d8": 226,
  "\u00d9": 227,
  "\u00da": 228,
  "\u00db": 229,
  "\u00dc": 230,
  "\u00dd": 231,
  "\u00de": 232,
  "\u00df": 233,
  "\u00e0": 234,
  "\u00e1": 235,
  "\u00e2": 236,
  "\u00e2\u0082": 512,
  "\u00e2\u0082\u00ac": 513,
  "\u00e3": 237,
  "\u00e4": 238,
  "\u00e5": 239,
  "\u00e6": 240,
  "\u00e7": 241,
  "\u00e8": 242,
  "\u00e9": 243,
  "\u00ea": 244,
  "\u00eb": 245,
  "\u00ec": 246,
  "\u00ed": 247,
  "\u00ee": 248,
  "\u00ef": 249,
  "\u00f0": 250,
  "\u00f1": 251,
  "\u00f2": 252,
  "\u00f3": 253,
  "\u00f4": 254,
  "\u00f5": 255,
  "\u00f6": 256,
  "\u00f7": 257,
  "\u00f8": 258,
  "\u00f9": 259,
  "\u00fa": 260,
  "\u00fb": 261,
  "\u00fc": 262,
  "\u00fd": 263,
  "\u00fe": 264,
  "\u00ff": 265
}
